{"version":"1.0","truncation":null,"padding":null,"added_tokens":[{"id":151643,"content":"[PAD]","single_word":false,"lstrip":false,"rstrip":false,"normalized":false,"special":true}],"normalizer":{"type":"Sequence","normalizers":[{"type":"NFC"},{"type":"Replace","pattern":{"String":"!"},"content":"! "},{"type":"Replace","pattern":{"String":"\""},"content":"\" "},{"type":"Replace","pattern":{"String":"#"},"content":"# "},{"type":"Replace","pattern":{"String":"$"},"content":"$ "},{"type":"Replace","pattern":{"String":"%"},"content":"% "},{"type":"Replace","pattern":{"String":"&"},"content":"& "},{"type":"Replace","pattern":{"String":"'"},"content":"' "},{"type":"Replace","pattern":{"String":"("},"content":"( "},{"type":"Replace","pattern":{"String":")"},"content":") "},{"type":"Replace","pattern":{"String":"*"},"content":"* "},{"type":"Replace","pattern":{"String":"+"},"content":"+ "},{"type":"Replace","pattern":{"String":","},"content":", "},{"type":"Replace","pattern":{"String":"-"},"content":"- "},{"type":"Replace","pattern":{"String":"."},"content":". "},{"type":"Replace","pattern":{"String":"/"},"content":"/ "},{"type":"Replace","pattern":{"String":":"},"content":": "},{"type":"Replace","pattern":{"String":";"},"content":"; "},{"type":"Replace","pattern":{"String":"<"},"content":"< "},{"type":"Replace","pattern":{"String":"="},"content":"= "},{"type":"Replace","pattern":{"String":">"},"content":"> "},{"type":"Replace","pattern":{"String":"?"},"content":"? "},{"type":"Replace","pattern":{"String":"@"},"content":"@ "},{"type":"Replace","pattern":{"String":"["},"content":"[ "},{"type":"Replace","pattern":{"String":"\\"},"content":"\\ "},{"type":"Replace","pattern":{"String":"]"},"content":"] "},{"type":"Replace","pattern":{"String":"^"},"content":"^ "},{"type":"Replace","pattern":{"String":"_"},"content":"_ "},{"type":"Replace","pattern":{"String":"`"},"content":"` "},{"type":"Replace","pattern":{"String":"{"},"content":"{ "},{"type":"Replace","pattern":{"String":"|"},"content":"| "},{"type":"Replace","pattern":{"String":"}"},"content":"} "},{"type":"Replace","pattern":{"String":"~"},"content":"~ "},{"type":"Replace","pattern":{"Regex":"\\s+"},"content":" "},{"type":"Strip","strip_left":true,"strip_right":true}]},"pre_tokenizer":{"type":"Sequence","pretokenizers":[{"type":"ByteLevel","add_prefix_space":true,"trim_offsets":false,"use_regex":false}]},"post_processor":{"type":"TemplateProcessing","single":[{"Sequence":{"id":"A","type_id":0}}],"pair":[{"Sequence":{"id":"A","type_id":0}},{"Sequence":{"id":"B","type_id":0}}],"special_tokens":{}},"decoder":{"type":"ByteLevel","add_prefix_space":false,"trim_offsets":false,"use_regex":false},"model":{"type":"Unigram","unk_id":null,"vocab":[["!",-13.849648181772736],["\"",-13.849648181772736],["#",-13.849648181772736],["$",-13.849648181772736],["%",-13.849648181772736],["&",-13.849648181772736],["'",-13.849648181772736],["(",-13.849648181772736],[")",-13.849648181772736],["*",-13.849648181772736],["+",-13.849648181772736],[",",-13.849648181772736],["-",-13.849648181772736],[".",-13.849648181772736],["/",-13.849648181772736],["0",-13.849648181772736],["1",-13.849648181772736],["2",-13.849648181772736],["3",-13.849648181772736],["4",-13.849648181772736],["5",-13.849648181772736],["6",-13.849648181772736],["7",-13.849648181772736],["8",-13.849648181772736],["9",-13.849648181772736],[":",-13.849648181772736],[";",-13.849648181772736],["<",-13.849648181772736],["=",-13.849648181772736],[">",-13.849648181772736],["?",-13.849648181772736],["@",-13.849648181772736],["A",-13.849648181772736],["B",-13.849648181772736],["C",-13.849648181772736],["D",-13.849648181772736],["E",-13.849648181772736],["F",-13.849648181772736],["G",-13.849648181772736],["H",-13.849648181772736],["I",-13.849648181772736],["J",-13.849648181772736],["K",-13.849648181772736],["L",-13.849648181772736],["M",-13.849648181772736],["N",-13.849648181772736],["O",-13.849648181772736],["P",-13.849648181772736],["Q",-13.849648181772736],["R",-13.849648181772736],["S",-13.849648181772736],["T",-13.849648181772736],["U",-13.849648181772736],["V",-13.849648181772736],["W",-13.849648181772736],["X",-13.849648181772736],["Y",-13.849648181772736],["Z",-13.849648181772736],["[",-13.849648181772736],["\\",-13.849648181772736],["]",-13.849648181772736],["^",-13.849648181772736],["_",-13.849648181772736],["`",-13.849648181772736],["a",-13.849648181772736],["b",-13.849648181772736],["c",-13.849648181772736],["d",-13.849648181772736],["e",-13.849648181772736],["f",-13.849648181772736],["g",-13.849648181772736],["h",-13.849648181772736],["i",-13.849648181772736],["j",-13.849648181772736],["k",-13.849648181772736],["l",-13.849648181772736],["m",-13.849648181772736],["n",-13.849648181772736],["o",-13.849648181772736],["p",-13.849648181772736],["q",-13.849648181772736],["r",-13.849648181772736],["s",-13.849648181772736],["t",-13.849648181772736],["u",-13.849648181772736],["v",-13.849648181772736],["w",-13.849648181772736],["x",-13.849648181772736],["y",-13.849648181772736],["z",-13.849648181772736],["{",-13.849648181772736],["|",-13.849648181772736],["}",-13.849648181772736],["~",-13.849648181772736],["¡",-13.849648181772736],["¢",-13.849648181772736],["£",-13.849648181772736],["¤",-13.849648181772736],["¥",-13.849648181772736],["¦",-13.849648181772736],["§",-13.849648181772736],["¨",-13.849648181772736],["©",-13.849648181772736],["ª",-13.849648181772736],["«",-13.849648181772736],["¬",-13.849648181772736],["®",-13.849648181772736],["¯",-13.849648181772736],["°",-13.849648181772736],["±",-13.849648181772736],["²",-13.849648181772736],["³",-13.849648181772736],["´",-13.849648181772736],["µ",-13.849648181772736],["¶",-13.849648181772736],["·",-13.849648181772736],["¸",-13.849648181772736],["¹",-13.849648181772736],["º",-13.849648181772736],["»",-13.849648181772736],["¼",-13.849648181772736],["½",-13.849648181772736],["¾",-13.849648181772736],["¿",-13.849648181772736],["À",-13.849648181772736],["Á",-13.849648181772736],["Â",-13.849648181772736],["Ã",-13.849648181772736],["Ä",-13.849648181772736],["Å",-13.849648181772736],["Æ",-13.849648181772736],["Ç",-13.849648181772736],["È",-13.849648181772736],["É",-13.849648181772736],["Ê",-13.849648181772736],["Ë",-13.849648181772736],["Ì",-13.849648181772736],["Í",-13.849648181772736],["Î",-13.849648181772736],["Ï",-13.849648181772736],["Ð",-13.849648181772736],["Ñ",-13.849648181772736],["Ò",-13.849648181772736],["Ó",-13.849648181772736],["Ô",-13.849648181772736],["Õ",-13.849648181772736],["Ö",-13.849648181772736],["×",-13.849648181772736],["Ø",-13.849648181772736],["Ù",-13.849648181772736],["Ú",-13.849648181772736],["Û",-13.849648181772736],["Ü",-13.849648181772736],["Ý",-13.849648181772736],["Þ",-13.849648181772736],["ß",-13.849648181772736],["à",-13.849648181772736],["á",-13.849648181772736],["â",-13.849648181772736],["ã",-13.849648181772736],["ä",-13.849648181772736],["å",-13.849648181772736],["æ",-13.849648181772736],["ç",-13.849648181772736],["è",-13.849648181772736],["é",-13.849648181772736],["ê",-13.849648181772736],["ë",-13.849648181772736],["ì",-13.849648181772736],["í",-13.849648181772736],["î",-13.849648181772736],["ï",-13.849648181772736],["ð",-13.849648181772736],["ñ",-13.849648181772736],["ò",-13.849648181772736],["ó",-13.849648181772736],["ô",-13.849648181772736],["õ",-13.849648181772736],["ö",-13.849648181772736],["÷",-13.849648181772736],["ø",-13.849648181772736],["ù",-13.849648181772736],["ú",-13.849648181772736],["û",-13.849648181772736],["ü",-13.849648181772736],["ý",-13.849648181772736],["þ",-13.849648181772736],["ÿ",-13.849648181772736],["Ā",-13.849648181772736],["ā",-13.849648181772736],["Ă",-13.849648181772736],["ă",-13.849648181772736],["Ą",-13.849648181772736],["ą",-13.849648181772736],["Ć",-13.849648181772736],["ć",-13.849648181772736],["Ĉ",-13.849648181772736],["ĉ",-13.849648181772736],["Ċ",-13.849648181772736],["ċ",-13.849648181772736],["Č",-13.849648181772736],["č",-13.849648181772736],["Ď",-13.849648181772736],["ď",-13.849648181772736],["Đ",-13.849648181772736],["đ",-13.849648181772736],["Ē",-13.849648181772736],["ē",-13.849648181772736],["Ĕ",-13.849648181772736],["ĕ",-13.849648181772736],["Ė",-13.849648181772736],["ė",-13.849648181772736],["Ę",-13.849648181772736],["ę",-13.849648181772736],["Ě",-13.849648181772736],["ě",-13.849648181772736],["Ĝ",-13.849648181772736],["ĝ",-13.849648181772736],["Ğ",-13.849648181772736],["ğ",-13.849648181772736],["Ġ",-13.156501001212792],["ġ",-13.849648181772736],["Ģ",-13.849648181772736],["ģ",-13.849648181772736],["Ĥ",-13.849648181772736],["ĥ",-13.849648181772736],["Ħ",-13.849648181772736],["ħ",-13.849648181772736],["Ĩ",-13.849648181772736],["ĩ",-13.849648181772736],["Ī",-13.849648181772736],["ī",-13.849648181772736],["Ĭ",-13.849648181772736],["ĭ",-13.849648181772736],["Į",-13.849648181772736],["į",-13.849648181772736],["İ",-13.849648181772736],["ı",-13.849648181772736],["Ĳ",-13.849648181772736],["ĳ",-13.849648181772736],["Ĵ",-13.849648181772736],["ĵ",-13.849648181772736],["Ķ",-13.849648181772736],["ķ",-13.849648181772736],["ĸ",-13.849648181772736],["Ĺ",-13.849648181772736],["ĺ",-13.849648181772736],["Ļ",-13.849648181772736],["ļ",-13.849648181772736],["Ľ",-13.849648181772736],["ľ",-13.849648181772736],["Ŀ",-13.849648181772736],["ŀ",-13.849648181772736],["Ł",-13.849648181772736],["ł",-13.849648181772736],["Ń",-13.849648181772736],["ĠĠ",-12.463353820652848],["ĠĠĠĠ",-11.7702066400929],["in",-13.156501001212792],["Ġt",-12.751035893104628],["ĠĠĠĠĠĠĠĠ",-11.077059459532956],["er",-13.156501001212792],["ĠĠĠ",-12.05788871254468],["on",-13.156501001212792],["Ġa",-12.751035893104628],["re",-13.156501001212792],["at",-13.156501001212792],["st",-13.156501001212792],["en",-13.156501001212792],["or",-13.156501001212792],["Ġth",-12.463353820652848],["ĊĊ",-13.156501001212792],["Ġc",-12.751035893104628],["le",-13.156501001212792],["Ġs",-12.751035893104628],["it",-13.156501001212792],["an",-13.156501001212792],["ar",-13.156501001212792],["al",-13.156501001212792],["Ġthe",-12.240210269338636],[";Ċ",-13.156501001212792],["Ġp",-12.751035893104628],["Ġf",-12.751035893104628],["ou",-13.156501001212792],["Ġ=",-12.751035893104628],["is",-13.156501001212792],["ĠĠĠĠĠĠĠ",-11.21059085215748],["ing",-12.751035893104628],["es",-13.156501001212792],["Ġw",-12.751035893104628],["ion",-12.751035893104628],["ed",-13.156501001212792],["ic",-13.156501001212792],["Ġb",-12.751035893104628],["Ġd",-12.751035893104628],["et",-13.156501001212792],["Ġm",-12.751035893104628],["Ġo",-12.751035893104628],["ĉĉ",-13.156501001212792],["ro",-13.156501001212792],["as",-13.156501001212792],["el",-13.156501001212792],["ct",-13.156501001212792],["nd",-13.156501001212792],["Ġin",-12.463353820652848],["Ġh",-12.751035893104628],["ent",-12.751035893104628],["id",-13.156501001212792],["Ġn",-12.751035893104628],["am",-13.156501001212792],["ĠĠĠĠĠĠĠĠĠĠĠ",-10.75860572841442],["Ġto",-12.463353820652848],["Ġre",-12.463353820652848],["--",-13.156501001212792],["Ġ{",-12.751035893104628],["Ġof",-12.463353820652848],["om",-13.156501001212792],[");Ċ",-12.751035893104628],["im",-13.156501001212792],["čĊ",-13.156501001212792],["Ġ(",-12.751035893104628],["il",-13.156501001212792],["//",-13.156501001212792],["Ġand",-12.240210269338636],["ur",-13.156501001212792],["se",-13.156501001212792],["Ġl",-12.751035893104628],["ex",-13.156501001212792],["ĠS",-12.751035893104628],["ad",-13.156501001212792],["Ġ\"",-12.751035893104628],["ch",-13.156501001212792],["ut",-13.156501001212792],["if",-13.156501001212792],["**",-13.156501001212792],["Ġ}",-12.751035893104628],["em",-13.156501001212792],["ol",-13.156501001212792],["ĠĠĠĠĠĠĠĠĠĠĠĠĠĠĠĠ",-10.38391227897301],["th",-13.156501001212792],[")Ċ",-13.156501001212792],["Ġ{Ċ",-12.463353820652848],["Ġg",-12.751035893104628],["ig",-13.156501001212792],["iv",-13.156501001212792],[",Ċ",-13.156501001212792],["ce",-13.156501001212792],["od",-13.156501001212792],["Ġv",-12.751035893104628],["ate",-12.751035893104628],["ĠT",-12.751035893104628],["ag",-13.156501001212792],["ay",-13.156501001212792],["Ġ*",-12.751035893104628],["ot",-13.156501001212792],["us",-13.156501001212792],["ĠC",-12.751035893104628],["Ġst",-12.463353820652848],["ĠI",-12.751035893104628],["un",-13.156501001212792],["ul",-13.156501001212792],["ue",-13.156501001212792],["ĠA",-12.751035893104628],["ow",-13.156501001212792],["Ġ'",-12.751035893104628],["ew",-13.156501001212792],["Ġ<",-12.751035893104628],["ation",-12.240210269338636],["()",-13.156501001212792],["Ġfor",-12.240210269338636],["ab",-13.156501001212792],["ort",-12.751035893104628],["um",-13.156501001212792],["ame",-12.751035893104628],["Ġis",-12.463353820652848],["pe",-13.156501001212792],["tr",-13.156501001212792],["ck",-13.156501001212792],["âĢ",-13.156501001212792],["Ġy",-12.751035893104628],["ist",-12.751035893104628],["----",-12.463353820652848],[".ĊĊ",-12.751035893104628],["he",-13.156501001212792],["Ġe",-12.751035893104628],["lo",-13.156501001212792],["ĠM",-12.751035893104628],["Ġbe",-12.463353820652848],["ers",-12.751035893104628],["Ġon",-12.463353820652848],["Ġcon",-12.240210269338636],["ap",-13.156501001212792],["ub",-13.156501001212792],["ĠP",-12.751035893104628],["ĠĠĠĠĠĠĠĠĠĠĠĠĠĠĠ",-10.448450800110582],["ass",-12.751035893104628],["int",-12.751035893104628],[">Ċ",-13.156501001212792],["ly",-13.156501001212792],["urn",-12.751035893104628],["Ġ$",-12.751035893104628],[";ĊĊ",-12.751035893104628],["av",-13.156501001212792],["port",-12.463353820652848],["ir",-13.156501001212792],["->",-13.156501001212792],["nt",-13.156501001212792],["ction",-12.240210269338636],["end",-12.751035893104628],["Ġde",-12.463353820652848],["ith",-12.751035893104628],["out",-12.751035893104628],["turn",-12.463353820652848],["our",-12.751035893104628],["ĠĠĠĠĠ",-11.54706308877869],["lic",-12.751035893104628],["res",-12.751035893104628],["pt",-13.156501001212792],["==",-13.156501001212792],["Ġthis",-12.05788871254468],["Ġwh",-12.463353820652848],["Ġif",-12.463353820652848],["ĠD",-12.751035893104628],["ver",-12.751035893104628],["age",-12.751035893104628],["ĠB",-12.751035893104628],["ht",-13.156501001212792],["ext",-12.751035893104628],["=\"",-13.156501001212792],["Ġthat",-12.05788871254468],["****",-12.463353820652848],["ĠR",-12.751035893104628],["Ġit",-12.463353820652848],["ess",-12.751035893104628],["ĠF",-12.751035893104628],["Ġr",-12.751035893104628],["os",-13.156501001212792],["and",-12.751035893104628],["Ġas",-12.463353820652848],["ect",-12.751035893104628],["ke",-13.156501001212792],["rom",-12.751035893104628],["Ġ//",-12.463353820652848],["con",-12.751035893104628],["ĠL",-12.751035893104628],["(\"",-13.156501001212792],["qu",-13.156501001212792],["lass",-12.463353820652848],["Ġwith",-12.05788871254468],["iz",-13.156501001212792],["de",-13.156501001212792],["ĠN",-12.751035893104628],["Ġal",-12.463353820652848],["op",-13.156501001212792],["up",-13.156501001212792],["get",-12.751035893104628],["Ġ}Ċ",-12.463353820652848],["ile",-12.751035893104628],["Ġan",-12.463353820652848],["ata",-12.751035893104628],["ore",-12.751035893104628],["ri",-13.156501001212792],["Ġpro",-12.240210269338636],[";čĊ",-12.751035893104628],["ĉĉĉĉ",-12.463353820652848],["ter",-12.751035893104628],["ain",-12.751035893104628],["ĠW",-12.751035893104628],["ĠE",-12.751035893104628],["Ġcom",-12.240210269338636],["Ġreturn",-11.7702066400929],["art",-12.751035893104628],["ĠH",-12.751035893104628],["ack",-12.751035893104628],["import",-12.05788871254468],["ublic",-12.240210269338636],["Ġor",-12.463353820652848],["est",-12.751035893104628],["ment",-12.463353820652848],["ĠG",-12.751035893104628],["able",-12.463353820652848],["Ġ-",-12.751035893104628],["ine",-12.751035893104628],["ill",-12.751035893104628],["ind",-12.751035893104628],["ere",-12.751035893104628],["::",-13.156501001212792],["ity",-12.751035893104628],["Ġ+",-12.751035893104628],["Ġtr",-12.463353820652848],["elf",-12.751035893104628],["ight",-12.463353820652848],["('",-13.156501001212792],["orm",-12.751035893104628],["ult",-12.751035893104628],["str",-12.751035893104628],["..",-13.156501001212792],["\",",-13.156501001212792],["Ġyou",-12.240210269338636],["ype",-12.751035893104628],["pl",-13.156501001212792],["Ġnew",-12.240210269338636],["Ġj",-12.751035893104628],["ĠĠĠĠĠĠĠĠĠĠĠĠĠĠĠĠĠĠĠ",-10.21206202204635],["Ġfrom",-12.05788871254468],["Ġex",-12.463353820652848],["ĠO",-12.751035893104628],["ld",-13.156501001212792],["Ġ[",-12.751035893104628],["oc",-13.156501001212792],[":Ċ",-13.156501001212792],["Ġse",-12.463353820652848],["Ġle",-12.463353820652848],["--------",-11.7702066400929],[".s",-13.156501001212792],["{Ċ",-13.156501001212792],["',",-13.156501001212792],["ant",-12.751035893104628],["Ġat",-12.463353820652848],["ase",-12.751035893104628],[".c",-13.156501001212792],["Ġch",-12.463353820652848],["</",-13.156501001212792],["ave",-12.751035893104628],["ang",-12.751035893104628],["Ġare",-12.240210269338636],["Ġint",-12.240210269338636],["âĢĻ",-12.751035893104628],["_t",-13.156501001212792],["ert",-12.751035893104628],["ial",-12.751035893104628],["act",-12.751035893104628],["}Ċ",-13.156501001212792],["ive",-12.751035893104628],["ode",-12.751035893104628],["ost",-12.751035893104628],["Ġclass",-11.903738032717424],["Ġnot",-12.240210269338636],["og",-13.156501001212792],["ord",-12.751035893104628],["alue",-12.463353820652848],["all",-12.751035893104628],["ff",-13.156501001212792],["();Ċ",-12.463353820652848],["ont",-12.751035893104628],["ime",-12.751035893104628],["are",-12.751035893104628],["ĠU",-12.751035893104628],["Ġpr",-12.463353820652848],["Ġ:",-12.751035893104628],["ies",-12.751035893104628],["ize",-12.751035893104628],["ure",-12.751035893104628],["Ġby",-12.463353820652848],["ire",-12.751035893104628],["Ġ}ĊĊ",-12.240210269338636],[".p",-13.156501001212792],["Ġsh",-12.463353820652848],["ice",-12.751035893104628],["ast",-12.751035893104628],["ption",-12.240210269338636],["tring",-12.240210269338636],["ok",-13.156501001212792],["__",-13.156501001212792],["cl",-13.156501001212792],["##",-13.156501001212792],["Ġhe",-12.463353820652848],["ard",-12.751035893104628],[").",-13.156501001212792],["Ġ@",-12.751035893104628],["iew",-12.751035893104628],["ĉĉĉ",-12.751035893104628],["Ġwas",-12.240210269338636],["ip",-13.156501001212792],["this",-12.463353820652848],["Ġu",-12.751035893104628],["ĠThe",-12.240210269338636],["ide",-12.751035893104628],["ace",-12.751035893104628],["ib",-13.156501001212792],["ac",-13.156501001212792],["rou",-12.751035893104628],["Ġwe",-12.463353820652848],["ject",-12.463353820652848],["Ġpublic",-11.7702066400929],["ak",-13.156501001212792],["ve",-13.156501001212792],["ath",-12.751035893104628],["oid",-12.751035893104628],["Ġ=>",-12.463353820652848],["ust",-12.751035893104628],["que",-12.751035893104628],["Ġres",-12.240210269338636],["))",-13.156501001212792],["'s",-13.156501001212792],["Ġk",-12.751035893104628],["ans",-12.751035893104628],["yst",-12.751035893104628],["unction",-11.903738032717424],["********",-11.7702066400929],["Ġi",-12.751035893104628],["Ġus",-12.463353820652848],["pp",-13.156501001212792],["one",-12.751035893104628],["ail",-12.751035893104628],["====",-12.463353820652848],["name",-12.463353820652848],["Ġstr",-12.240210269338636],["Ġ/",-12.751035893104628],["Ġ&",-12.751035893104628],["ach",-12.751035893104628],["div",-12.751035893104628],["ystem",-12.240210269338636],["ell",-12.751035893104628],["Ġhave",-12.05788871254468],["err",-12.751035893104628],["ould",-12.463353820652848],["ull",-12.751035893104628],["pon",-12.751035893104628],["ĠJ",-12.751035893104628],["_p",-13.156501001212792],["Ġ==",-12.463353820652848],["ign",-12.751035893104628],["St",-13.156501001212792],[".Ċ",-13.156501001212792],["Ġpl",-12.463353820652848],[");ĊĊ",-12.463353820652848],["form",-12.463353820652848],["put",-12.751035893104628],["ount",-12.463353820652848],["}ĊĊ",-12.751035893104628],["dd",-13.156501001212792],["ite",-12.751035893104628],["Ġget",-12.240210269338636],["rr",-13.156501001212792],["ome",-12.751035893104628],["ĠâĢ",-12.463353820652848],["aram",-12.463353820652848],["cc",-13.156501001212792],["Ġ*/",-12.463353820652848],["ER",-13.156501001212792],["In",-13.156501001212792],["les",-12.751035893104628],["_s",-13.156501001212792],["ong",-12.751035893104628],["ie",-13.156501001212792],["Ġcan",-12.240210269338636],["ĠV",-12.751035893104628],["erv",-12.751035893104628],["pr",-13.156501001212792],["Ġun",-12.463353820652848],["row",-12.751035893104628],["ber",-12.751035893104628],["Ġdo",-12.463353820652848],["ll",-13.156501001212792],["Ġel",-12.463353820652848],["Ġself",-12.05788871254468],["ated",-12.463353820652848],["ary",-12.751035893104628],["Ġ.",-12.751035893104628],["']",-13.156501001212792],["ud",-13.156501001212792],["Ġen",-12.463353820652848],["ĠTh",-12.463353820652848],["ĠĠĠĠĠĠĠĠĠĠĠĠĠĠĠĠĠĠĠĠĠĠĠ",-10.021006785283642],["te",-13.156501001212792],["_c",-13.156501001212792],["uct",-12.751035893104628],["Ġab",-12.463353820652848],["ork",-12.751035893104628],[".get",-12.463353820652848],["Ġ#",-12.751035893104628],["aw",-13.156501001212792],["ress",-12.463353820652848],["ob",-13.156501001212792],["Name",-12.463353820652848],["app",-12.751035893104628],["['",-13.156501001212792],["Ġall",-12.240210269338636],["ory",-12.751035893104628],["ition",-12.240210269338636],["ance",-12.463353820652848],["ear",-12.751035893104628],["Ġcont",-12.05788871254468],["vent",-12.463353820652848],["ia",-13.156501001212792],["Ġwill",-12.05788871254468],["IN",-13.156501001212792],["ĠĠĠĠĠĠĠĠĠ",-10.959276423876572],["return",-12.05788871254468],["Ġ</",-12.463353820652848],["data",-12.463353820652848],[")ĊĊ",-12.751035893104628],["Re",-13.156501001212792],["ple",-12.751035893104628],["ild",-12.751035893104628],["ther",-12.463353820652848],["Ġyour",-12.05788871254468],["\"Ċ",-13.156501001212792],["($",-13.156501001212792],["Ġout",-12.240210269338636],["),",-13.156501001212792],["Ġhas",-12.240210269338636],["String",-12.05788871254468],["so",-13.156501001212792],["Ġup",-12.463353820652848],["ax",-13.156501001212792],["Ġdef",-12.240210269338636],["Ġbo",-12.463353820652848],["ge",-13.156501001212792],["alse",-12.463353820652848],["ON",-13.156501001212792],["per",-12.751035893104628],["ich",-12.751035893104628],["Ġbut",-12.240210269338636],["ĠĊ",-12.751035893104628],["Ġ_",-12.751035893104628],["_m",-13.156501001212792],["add",-12.751035893104628],["quest",-12.240210269338636],["odel",-12.463353820652848],["self",-12.463353820652848],["ery",-12.751035893104628],["ft",-13.156501001212792],["ens",-12.751035893104628],["////",-12.463353820652848],["ake",-12.751035893104628],[".C",-13.156501001212792],["Ġgo",-12.463353820652848],["Ġfunction",-11.54706308877869],["ĠK",-12.751035893104628],["ivate",-12.240210269338636],["Ġim",-12.463353820652848],["Ġconst",-11.903738032717424],[".t",-13.156501001212792],["Ġ*/Ċ",-12.240210269338636],[");čĊ",-12.463353820652848],["Ġvoid",-12.05788871254468],["Ġset",-12.240210269338636],["ĠSystem",-11.7702066400929],["cri",-12.751035893104628],["()Ċ",-12.751035893104628],["li",-13.156501001212792],["ĉif",-12.751035893104628],[".m",-13.156501001212792],["ally",-12.463353820652848],["set",-12.751035893104628],["ep",-13.156501001212792],["âĢĻs",-12.463353820652848],["bo",-13.156501001212792],["def",-12.751035893104628],["',Ċ",-12.751035893104628],["Ġme",-12.463353820652848],["Ġ!",-12.751035893104628],["atch",-12.463353820652848],["\">",-13.156501001212792],["\",Ċ",-12.751035893104628],["ec",-13.156501001212792],["ĠIn",-12.463353820652848],["ph",-13.156501001212792],["Ġ|",-12.751035893104628],["_f",-13.156501001212792],["Ġvar",-12.240210269338636],["ence",-12.463353820652848],["Id",-13.156501001212792],["ree",-12.751035893104628],["ink",-12.751035893104628],["lect",-12.463353820652848],["ug",-13.156501001212792],["eth",-12.751035893104628],["Ġelse",-12.05788871254468],["----------------",-11.077059459532956],["cont",-12.463353820652848],["Ġso",-12.463353820652848],["atic",-12.463353820652848],["Ġlo",-12.463353820652848],["pro",-12.751035893104628],["ton",-12.751035893104628],["ss",-13.156501001212792],["own",-12.751035893104628],["abel",-12.463353820652848],["oint",-12.463353820652848],["ous",-12.751035893104628],["eld",-12.751035893104628],["ST",-13.156501001212792],["The",-12.751035893104628],["ĠĠĠĠĠĠĠĠĠĠĠĠĠĠĠĠĠĠĠĠĠĠĠĠĠĠĠĠĠĠĠĠ",-9.690765098413063],["RE",-13.156501001212792],["\":",-13.156501001212792],["olor",-12.463353820652848],["tp",-13.156501001212792],["eg",-13.156501001212792],["key",-12.751035893104628],["ude",-12.751035893104628],["ĠSt",-12.463353820652848],["ound",-12.463353820652848],["Ġar",-12.463353820652848],["\");Ċ",-12.463353820652848],["ener",-12.463353820652848],["ser",-12.751035893104628],["bject",-12.240210269338636],["essage",-12.05788871254468],["fer",-12.751035893104628],["Ġmore",-12.05788871254468],["ations",-12.05788871254468],["ents",-12.463353820652848],["Ġhis",-12.240210269338636],["Ġthey",-12.05788871254468],[".S",-13.156501001212792],["ĠY",-12.751035893104628],["use",-12.751035893104628],["ne",-13.156501001212792],["ish",-12.751035893104628],["old",-12.751035893104628],["_d",-13.156501001212792],["io",-13.156501001212792],["ield",-12.463353820652848],["Ġper",-12.240210269338636],["Cont",-12.463353820652848],["ings",-12.463353820652848],["####",-12.463353820652848],["Ġdata",-12.05788871254468],["Ġsa",-12.463353820652848],["ef",-13.156501001212792],["fo",-13.156501001212792],["Ġone",-12.240210269338636],["eng",-12.751035893104628],["Ġdis",-12.240210269338636],["AT",-13.156501001212792],["Ġname",-12.05788871254468],["Ġtrue",-12.05788871254468],["val",-12.751035893104628],["led",-12.751035893104628],[".f",-13.156501001212792],["Ġne",-12.463353820652848],["Ġend",-12.240210269338636],[".T",-13.156501001212792],["cre",-12.751035893104628],["ark",-12.751035893104628],["log",-12.751035893104628],["Ex",-13.156501001212792],["error",-12.240210269338636],["_id",-12.751035893104628],["urre",-12.463353820652848],["ange",-12.463353820652848],["Ġnull",-12.05788871254468],["rray",-12.463353820652848],["Ġmy",-12.463353820652848],["pan",-12.751035893104628],["ict",-12.751035893104628],["ator",-12.463353820652848],["View",-12.463353820652848],["List",-12.463353820652848],["ĉreturn",-11.903738032717424],["âĢĿ",-12.751035893104628],["Ġpre",-12.240210269338636],["Ġx",-12.751035893104628],["clude",-12.240210269338636],["arg",-12.751035893104628],["ov",-13.156501001212792],[".h",-13.156501001212792],["Ġ>",-12.751035893104628],["Ġtheir",-11.903738032717424],["')",-13.156501001212792],["irst",-12.463353820652848],["ick",-12.751035893104628],["gh",-13.156501001212792],["LE",-13.156501001212792],["OR",-13.156501001212792],["Ġprivate",-11.652423604436516],["tem",-12.751035893104628],["čĊčĊ",-12.463353820652848],["user",-12.463353820652848],["Ġ)",-12.751035893104628],["com",-12.751035893104628],[".A",-13.156501001212792],["\";Ċ",-12.751035893104628],["Ġid",-12.463353820652848],["read",-12.463353820652848],["Ġwho",-12.240210269338636],["_b",-13.156501001212792],["\">Ċ",-12.751035893104628],["Ġtime",-12.05788871254468],["Ġman",-12.240210269338636],["ry",-13.156501001212792],["========",-11.7702066400929],["roup",-12.463353820652848],["rop",-12.751035893104628],["public",-12.05788871254468],["vel",-12.751035893104628],["umber",-12.240210269338636],["ble",-12.751035893104628],["Ġwhich",-11.903738032717424],["****************",-11.077059459532956],["Ġany",-12.240210269338636],["Ġfalse",-11.903738032717424],["we",-13.156501001212792],["Ġvalue",-11.903738032717424],["Ġli",-12.463353820652848],["\")",-13.156501001212792],["nder",-12.463353820652848],["gr",-13.156501001212792],["Ġno",-12.463353820652848],["param",-12.240210269338636],["fig",-12.751035893104628],[".com",-12.463353820652848],["Ġapp",-12.240210269338636],["_l",-13.156501001212792],["ions",-12.463353820652848],[".D",-13.156501001212792],["ĠCh",-12.463353820652848],["Ġabout",-11.903738032717424],["Ġadd",-12.240210269338636],["Ġsu",-12.463353820652848],["Ġstring",-11.7702066400929],["ID",-13.156501001212792],["Ġover",-12.05788871254468],["string",-12.05788871254468],[".l",-13.156501001212792],["ource",-12.240210269338636],["_C",-13.156501001212792],["]Ċ",-13.156501001212792],["Ġqu",-12.463353820652848],["ĠString",-11.7702066400929],["ca",-13.156501001212792],["SE",-13.156501001212792],["Ġro",-12.463353820652848],["sh",-13.156501001212792],["ual",-12.751035893104628],["Type",-12.463353820652848],["son",-12.751035893104628],["new",-12.751035893104628],["ern",-12.751035893104628],["Ġag",-12.463353820652848],["AR",-13.156501001212792],["];Ċ",-12.751035893104628],["].",-13.156501001212792],["Ġ?",-12.751035893104628],["ical",-12.463353820652848],["Ġdes",-12.240210269338636],["uth",-12.751035893104628],["ix",-13.156501001212792],["ays",-12.751035893104628],["Ġtype",-12.05788871254468],["'t",-13.156501001212792],["ault",-12.463353820652848],["Ġinter",-11.903738032717424],["var",-12.751035893104628],[".b",-13.156501001212792],["Ġpart",-12.05788871254468],[".d",-13.156501001212792],["urrent",-12.05788871254468],["IT",-13.156501001212792],["EN",-13.156501001212792],["enc",-12.751035893104628],["(f",-13.156501001212792],["ra",-13.156501001212792],["value",-12.240210269338636],["cho",-12.751035893104628],["utton",-12.240210269338636],["ose",-12.751035893104628],["Ġ!=",-12.463353820652848],["ater",-12.463353820652848],["Ã©",-13.156501001212792],["reate",-12.240210269338636],["oll",-12.751035893104628],["pos",-12.751035893104628],["yle",-12.751035893104628],["ng",-13.156501001212792],["AL",-13.156501001212792],["using",-12.240210269338636],["ames",-12.463353820652848],["Ġ{čĊ",-12.240210269338636],["ates",-12.463353820652848],["ely",-12.751035893104628],["Ġwork",-12.05788871254468],["Ġem",-12.463353820652848],["inal",-12.463353820652848],["Ġsp",-12.463353820652848],["Ġwhen",-12.05788871254468],[".set",-12.463353820652848],["ĠĠĠĠĠĠ",-11.364741531984736],["):Ċ",-12.751035893104628],["to",-13.156501001212792],["quire",-12.240210269338636],["indow",-12.240210269338636],["lement",-12.05788871254468],["pect",-12.463353820652848],["ash",-12.751035893104628],["[i",-13.156501001212792],["Ġuse",-12.240210269338636],[".F",-13.156501001212792],["pec",-12.751035893104628],["Ġad",-12.463353820652848],["ove",-12.751035893104628],["ception",-11.903738032717424],["ength",-12.240210269338636],["include",-11.903738032717424],["ader",-12.463353820652848],["ĠĠĠĠĠĠĠĠĠĠĠĠĠĠĠĠĠĠĠĠĠĠĠĠĠĠĠ",-9.860664135208465],["atus",-12.463353820652848],["Th",-13.156501001212792],["itle",-12.463353820652848],["rit",-12.751035893104628],["void",-12.463353820652848],["().",-12.751035893104628],["(Ċ",-13.156501001212792],["Ġoff",-12.240210269338636],["Ġother",-11.903738032717424],["Ġ&&",-12.463353820652848],["';Ċ",-12.751035893104628],["ms",-13.156501001212792],["Ġbeen",-12.05788871254468],["Ġte",-12.463353820652848],["ml",-13.156501001212792],["co",-13.156501001212792],["nc",-13.156501001212792],["ervice",-12.05788871254468],["Ġ%",-12.751035893104628],["**Ċ",-12.751035893104628],["ann",-12.751035893104628],["ade",-12.751035893104628],["ĊĊĊĊ",-12.463353820652848],["lock",-12.463353820652848],["const",-12.240210269338636],["ponse",-12.240210269338636],["Ġsup",-12.240210269338636],["++",-13.156501001212792],["date",-12.463353820652848],["Ġacc",-12.240210269338636],["Ġhad",-12.240210269338636],["Ġbu",-12.463353820652848],["ĠRe",-12.463353820652848],["Ġwere",-12.05788871254468],["Ġfile",-12.05788871254468],["Ġwould",-11.903738032717424],["ĠâĢľ",-12.240210269338636],["ven",-12.751035893104628],["iss",-12.751035893104628],["Ġour",-12.240210269338636],["class",-12.240210269338636],["raw",-12.751035893104628],["Ġyear",-12.05788871254468],["Data",-12.463353820652848],["Ġval",-12.240210269338636],["Ġsome",-12.05788871254468],["fter",-12.463353820652848],["ys",-13.156501001212792],["Ġ///",-12.240210269338636],["round",-12.240210269338636],["view",-12.463353820652848],["Ġpe",-12.463353820652848],["Ġthere",-11.903738032717424],["Ġsaid",-12.05788871254468],["du",-13.156501001212792],["of",-13.156501001212792],["line",-12.463353820652848],["/*",-13.156501001212792],["duct",-12.463353820652848],["Ġher",-12.240210269338636],["ĠĠĠĠĠĠĠĠĠĠĠĠĠ",-10.591551643751254],["Res",-12.751035893104628],["Ġco",-12.463353820652848],["Ġcomm",-12.05788871254468],["ise",-12.751035893104628],["min",-12.751035893104628],["ĠĠĠĠĊ",-11.652423604436516],["#include",-11.7702066400929],["ethod",-12.240210269338636],[".P",-13.156501001212792],["ute",-12.751035893104628],["Ġass",-12.240210269338636],["Int",-12.751035893104628],["ask",-12.751035893104628],["loc",-12.751035893104628],["Ġlike",-12.05788871254468],["ody",-12.751035893104628],["Ġlet",-12.240210269338636],["load",-12.463353820652848],["Ġam",-12.463353820652848],["rol",-12.751035893104628],["Ġgr",-12.463353820652848],["yp",-13.156501001212792],["Ġalso",-12.05788871254468],["ĠIt",-12.463353820652848],["url",-12.751035893104628],["ific",-12.463353820652848],["ors",-12.751035893104628],["_P",-13.156501001212792],["_n",-13.156501001212792],["igh",-12.751035893104628],["Ġthan",-12.05788871254468],["Com",-12.751035893104628],["AN",-13.156501001212792],["UL",-13.156501001212792],["ating",-12.240210269338636],["ĠThis",-12.05788871254468],["ref",-12.751035893104628],["_S",-13.156501001212792],["Ġstatic",-11.7702066400929],["roll",-12.463353820652848],["Ġjust",-12.05788871254468],["Ġresult",-11.7702066400929],["ian",-12.751035893104628],["idth",-12.463353820652848],["Ġthem",-12.05788871254468],["));Ċ",-12.463353820652848],["der",-12.751035893104628],["reak",-12.463353820652848],["Con",-12.751035893104628],["://",-12.751035893104628],["ule",-12.751035893104628],["...",-12.751035893104628],["arch",-12.463353820652848],["ement",-12.240210269338636],["Ġ<<",-12.463353820652848],["ush",-12.751035893104628],["ense",-12.463353820652848],["arr",-12.751035893104628],["Ġinto",-12.05788871254468],["cess",-12.463353820652848],["amp",-12.751035893104628],["ied",-12.751035893104628],["ument",-12.240210269338636],["Ġ\\",-12.751035893104628],["],",-13.156501001212792],["wo",-13.156501001212792],["als",-12.751035893104628],["Ġwhat",-12.05788871254468],["anc",-12.751035893104628],["Value",-12.240210269338636],["='",-13.156501001212792],["olum",-12.463353820652848],["Ġpos",-12.240210269338636],["ages",-12.463353820652848],["ayer",-12.463353820652848],["Ġsc",-12.463353820652848],["ues",-12.751035893104628],["\")Ċ",-12.751035893104628],["_T",-13.156501001212792],["Ġlist",-12.05788871254468],["(s",-13.156501001212792],["Ġcase",-12.05788871254468],["Ch",-13.156501001212792],["ĉĉĉĉĉ",-12.240210269338636],["////////",-11.7702066400929],["ponent",-12.05788871254468],["Ġz",-12.751035893104628],["Ġkn",-12.463353820652848],["let",-12.751035893104628],["DE",-13.156501001212792],["red",-12.751035893104628],["Ġfe",-12.463353820652848],["Ġ},Ċ",-12.240210269338636],["Ġ,",-12.751035893104628],["(t",-13.156501001212792],["Ġfirst",-11.903738032717424],["');Ċ",-12.463353820652848],["word",-12.463353820652848],["Ġimport",-11.7702066400929],["Ġact",-12.240210269338636],["Ġchar",-12.05788871254468],["CT",-13.156501001212792],["ĠTr",-12.463353820652848],["ople",-12.463353820652848],["={",-13.156501001212792],["ĉf",-13.156501001212792],["ient",-12.463353820652848],["cent",-12.463353820652848],[".j",-13.156501001212792],["lection",-11.903738032717424],["))Ċ",-12.751035893104628],["Ġonly",-12.05788871254468],["Ġprint",-11.903738032717424],["mer",-12.751035893104628],[".W",-13.156501001212792],["ock",-12.751035893104628],["Ġ--",-12.463353820652848],["Text",-12.463353820652848],["Ġop",-12.463353820652848],["ank",-12.751035893104628],["Ġits",-12.240210269338636],["Ġback",-12.05788871254468],["[\"",-13.156501001212792],["Ġneed",-12.05788871254468],["Ġcl",-12.463353820652848],["Ġsub",-12.240210269338636],["Ġla",-12.463353820652848],["((",-13.156501001212792],[".\"",-13.156501001212792],["Object",-12.05788871254468],["Ġstart",-11.903738032717424],["file",-12.463353820652848],["(self",-12.240210269338636],["ner",-12.751035893104628],["ey",-13.156501001212792],["Ġuser",-12.05788871254468],["Ġent",-12.240210269338636],["ĠCom",-12.240210269338636],["its",-12.751035893104628],["ĠCon",-12.240210269338636],["ouble",-12.240210269338636],["ower",-12.463353820652848],["item",-12.463353820652848],["very",-12.463353820652848],["ĠWe",-12.463353820652848],["lick",-12.463353820652848],["ĠQ",-12.751035893104628],["php",-12.751035893104628],["ttp",-12.751035893104628],["':",-13.156501001212792],["ics",-12.751035893104628],["Ġunder",-11.903738032717424],["Ġ*Ċ",-12.463353820652848],[".L",-13.156501001212792],[");",-13.156501001212792],["ices",-12.463353820652848],["Ġreg",-12.240210269338636],[")čĊ",-12.751035893104628],["ĉpublic",-11.903738032717424],["SS",-13.156501001212792],["Ġthen",-12.05788871254468],["reat",-12.463353820652848],["ious",-12.463353820652848],[".G",-13.156501001212792],["ek",-13.156501001212792],["irect",-12.240210269338636],["heck",-12.463353820652848],["cript",-12.240210269338636],["ning",-12.463353820652848],["ĠUn",-12.463353820652848],["Ġmay",-12.240210269338636],["ĠWh",-12.463353820652848],["Bo",-13.156501001212792],["Item",-12.463353820652848],["struct",-12.05788871254468],[".st",-12.751035893104628],["ream",-12.463353820652848],["ible",-12.463353820652848],["loat",-12.463353820652848],["Ġorg",-12.240210269338636],["und",-12.751035893104628],["sum",-12.751035893104628],["_in",-12.751035893104628],["../",-12.751035893104628],["_M",-13.156501001212792],["Ġhow",-12.240210269338636],["rite",-12.463353820652848],["'Ċ",-13.156501001212792],["To",-13.156501001212792],["ww",-13.156501001212792],["Ġpeople",-11.7702066400929],["index",-12.240210269338636],[".n",-13.156501001212792],["http",-12.463353820652848],["(m",-13.156501001212792],["ector",-12.240210269338636],["Ġind",-12.240210269338636],["Ġjav",-12.240210269338636],["],Ċ",-12.751035893104628],["ĠHe",-12.463353820652848],["_st",-12.751035893104628],["ful",-12.751035893104628],["ole",-12.751035893104628],["){Ċ",-12.751035893104628],["Ġshould",-11.7702066400929],["opy",-12.751035893104628],["elp",-12.751035893104628],["ier",-12.751035893104628],["_name",-12.240210269338636],["erson",-12.240210269338636],["ION",-12.751035893104628],["ote",-12.751035893104628],["Ġtest",-12.05788871254468],["Ġbet",-12.240210269338636],["rror",-12.463353820652848],["ular",-12.463353820652848],["ãĢ",-13.156501001212792],["ĠÐ",-12.751035893104628],["bs",-13.156501001212792],["ting",-12.463353820652848],["Ġmake",-12.05788871254468],["Tr",-13.156501001212792],["Ġafter",-11.903738032717424],["arget",-12.240210269338636],["RO",-13.156501001212792],["olumn",-12.240210269338636],["rc",-13.156501001212792],["_re",-12.751035893104628],["define",-12.05788871254468],["Ġright",-11.903738032717424],["right",-12.240210269338636],["day",-12.751035893104628],["Ġlong",-12.05788871254468],["[]",-13.156501001212792],["(p",-13.156501001212792],["td",-13.156501001212792],["cond",-12.463353820652848],["ĠPro",-12.240210269338636],["Ġrem",-12.240210269338636],["ptions",-12.05788871254468],["vid",-12.751035893104628],[".g",-13.156501001212792],["Ġext",-12.240210269338636],["Ġ__",-12.463353820652848],["')Ċ",-12.751035893104628],["pace",-12.463353820652848],["mp",-13.156501001212792],["Ġmin",-12.240210269338636],["stance",-12.05788871254468],["air",-12.751035893104628],["action",-12.05788871254468],["wh",-13.156501001212792],["type",-12.463353820652848],["util",-12.463353820652848],["ait",-12.751035893104628],["<?",-13.156501001212792],["IC",-13.156501001212792],["text",-12.463353820652848],["Ġph",-12.463353820652848],["Ġfl",-12.463353820652848],[".M",-13.156501001212792],["ccess",-12.240210269338636],["br",-13.156501001212792],["fore",-12.463353820652848],["ersion",-12.05788871254468],["),Ċ",-12.751035893104628],[".re",-12.751035893104628],["ateg",-12.463353820652848],["Ġloc",-12.240210269338636],["ins",-12.751035893104628],["-s",-13.156501001212792],["trib",-12.463353820652848],["ĠInt",-12.240210269338636],["Ġarray",-11.903738032717424],[",\"",-13.156501001212792],["Pro",-12.751035893104628],["(c",-13.156501001212792],["ession",-12.05788871254468],[">ĊĊ",-12.751035893104628],["Ġshe",-12.240210269338636],["\"]",-13.156501001212792],["aph",-12.751035893104628],["Ġexp",-12.240210269338636],["erty",-12.463353820652848],["ĠSe",-12.463353820652848],["Ġpar",-12.240210269338636],["unc",-12.751035893104628],["ET",-13.156501001212792],["Ġread",-12.05788871254468],["print",-12.240210269338636],["Ġrel",-12.240210269338636],["Ġform",-12.05788871254468],["Ġdr",-12.463353820652848],["Exception",-11.652423604436516],["input",-12.240210269338636],["Ġtrans",-11.903738032717424],["########",-11.7702066400929],["order",-12.240210269338636],["By",-13.156501001212792],["Ġaw",-12.463353820652848],["ities",-12.240210269338636],["uff",-12.751035893104628],["play",-12.463353820652848],[".add",-12.463353820652848],["ĠâĢĵ",-12.240210269338636],["Ġwant",-12.05788871254468],["Ġcomp",-12.05788871254468],["ments",-12.240210269338636],["Ġ||",-12.463353820652848],["az",-13.156501001212792],["be",-13.156501001212792],["Ġnumber",-11.7702066400929],["Ġrequire",-11.652423604436516],["ĠEx",-12.463353820652848],["Ġcol",-12.240210269338636],["Ġkey",-12.240210269338636],["ember",-12.240210269338636],["Ġtwo",-12.240210269338636],["Ġsize",-12.05788871254468],["Ġwhere",-11.903738032717424],["UT",-13.156501001212792],["result",-12.05788871254468],["ĠĠĠĠĠĠĠĠĠĠĠĠĠĠĠĠĠĠĠĠĠĠĠĠĠĠĠĠĠĠĠ",-9.722513796727643],["ough",-12.463353820652848],["orld",-12.463353820652848],["ood",-12.751035893104628],["uch",-12.751035893104628],["ative",-12.240210269338636],["ger",-12.751035893104628],["arent",-12.240210269338636],["Ġ/*",-12.463353820652848],["Ġarg",-12.240210269338636],["Ġwhile",-11.903738032717424],["(this",-12.240210269338636],["Ġrec",-12.240210269338636],["Ġdif",-12.240210269338636],["State",-12.240210269338636],["Ġspec",-12.05788871254468],["ride",-12.463353820652848],["_F",-13.156501001212792],["Ġlook",-12.05788871254468],["AM",-13.156501001212792],["ility",-12.240210269338636],["eter",-12.463353820652848],["âĢĻt",-12.463353820652848],["ĊĊĊ",-12.751035893104628],["ayout",-12.240210269338636],["--------------------------------",-10.38391227897301],["ager",-12.463353820652848],["Ġcould",-11.903738032717424],["Ġbr",-12.463353820652848],["ends",-12.463353820652848],["ures",-12.463353820652848],["Ġknow",-12.05788871254468],["ets",-12.751035893104628],["ĠIf",-12.463353820652848],["ĠSh",-12.463353820652848],[".w",-13.156501001212792],["back",-12.463353820652848],["Ġser",-12.240210269338636],["Ġ+=",-12.463353820652848],["Ġfr",-12.463353820652848],["());Ċ",-12.240210269338636],["Ġhand",-12.05788871254468],["Ind",-12.751035893104628],["ULL",-12.751035893104628],["Im",-13.156501001212792],["();ĊĊ",-12.240210269338636],["Ġmost",-12.05788871254468],["Ġtry",-12.240210269338636],["Ġnow",-12.240210269338636],["rough",-12.240210269338636],[">čĊ",-12.751035893104628],["ackage",-12.05788871254468],["Ġhim",-12.240210269338636],["._",-13.156501001212792],["ify",-12.751035893104628],["Ġbreak",-11.903738032717424],["Ġ);Ċ",-12.240210269338636],["ren",-12.751035893104628],["#define",-11.903738032717424],["itt",-12.751035893104628],["Ġap",-12.463353820652848],["ĉc",-13.156501001212792],["(n",-13.156501001212792],["ĠYou",-12.240210269338636],[":ĊĊ",-12.751035893104628],["-m",-13.156501001212792],["Ġevery",-11.903738032717424],["ustom",-12.240210269338636],["lient",-12.240210269338636],["ocument",-11.903738032717424],["cription",-11.7702066400929],["Error",-12.240210269338636],["-b",-13.156501001212792],["Ð¾",-13.156501001212792],["][",-13.156501001212792],["trans",-12.240210269338636],["Ġpoint",-11.903738032717424],["Ġstd",-12.240210269338636],["Ġfil",-12.240210269338636],["Time",-12.463353820652848],["Ġmod",-12.240210269338636],["Ġ->",-12.463353820652848],["Ġerror",-11.903738032717424],["ah",-13.156501001212792],["Ġtext",-12.05788871254468],["roller",-12.05788871254468],["lose",-12.463353820652848],["ql",-13.156501001212792],["Ġpol",-12.240210269338636],["></",-12.751035893104628],["Ġshow",-12.05788871254468],["User",-12.463353820652848],["ased",-12.463353820652848],["Ġ{ĊĊ",-12.240210269338636],["Ġfind",-12.05788871254468],["Ð°",-13.156501001212792],["ED",-13.156501001212792],["span",-12.463353820652848],["enu",-12.751035893104628],["Ġcurrent",-11.652423604436516],["Ġused",-12.05788871254468],["cept",-12.463353820652848],["clud",-12.463353820652848],["Ġplay",-12.05788871254468],["Ġlog",-12.240210269338636],["ution",-12.240210269338636],["fl",-13.156501001212792],["Ġsee",-12.240210269338636],["indows",-12.05788871254468],["Ġhelp",-12.05788871254468],["Ġthese",-11.903738032717424],["Ġpass",-12.05788871254468],["Ġdown",-12.05788871254468],["Ġeven",-12.05788871254468],["ason",-12.463353820652848],["uild",-12.463353820652848],["from",-12.463353820652848],["(d",-13.156501001212792],["Ġbl",-12.463353820652848],["label",-12.240210269338636],["else",-12.463353820652848],["Ðµ",-13.156501001212792],["Ġ(!",-12.463353820652848],["ized",-12.463353820652848],["(),",-12.751035893104628],["Ġob",-12.463353820652848],["Ġitem",-12.05788871254468],["ump",-12.751035893104628],["UR",-13.156501001212792],["orn",-12.751035893104628],["Ġdon",-12.240210269338636],["Se",-13.156501001212792],["man",-12.751035893104628],["ample",-12.240210269338636],["tn",-13.156501001212792],["================",-11.077059459532956],["He",-13.156501001212792],["gram",-12.463353820652848],["Ġdid",-12.240210269338636],["wn",-13.156501001212792],["_h",-13.156501001212792],["iver",-12.463353820652848],["Ġsm",-12.463353820652848],["Ġthrough",-11.652423604436516],["ĠAn",-12.463353820652848],["che",-12.751035893104628],["Ġinv",-12.240210269338636],["ouse",-12.463353820652848],["Ġes",-12.463353820652848],["ĠNew",-12.240210269338636],["export",-12.05788871254468],["mary",-12.463353820652848],["uto",-12.751035893104628],["ler",-12.751035893104628],["Ġlast",-12.05788871254468],["Ġevent",-11.903738032717424],["try",-12.751035893104628],["ï¼",-13.156501001212792],["ily",-12.751035893104628],["igned",-12.240210269338636],["ines",-12.463353820652848],["ollow",-12.240210269338636],["icense",-12.05788871254468],["sole",-12.463353820652848],["lear",-12.463353820652848],["(int",-12.463353820652848],["Ġagain",-11.903738032717424],["Ġhigh",-12.05788871254468],["html",-12.463353820652848],["Index",-12.240210269338636],["uthor",-12.240210269338636],["Ġ/**Ċ",-12.05788871254468],["Ġline",-12.05788871254468],["Event",-12.240210269338636],["_D",-13.156501001212792],["Ġdoes",-12.05788871254468],["itial",-12.240210269338636],["Ġcr",-12.463353820652848],["ars",-12.751035893104628],["Ġtem",-12.240210269338636],["cause",-12.240210269338636],["face",-12.463353820652848],["Ġ`",-12.751035893104628],["_A",-13.156501001212792],["Button",-12.05788871254468],["ature",-12.240210269338636],["ected",-12.240210269338636],["ES",-13.156501001212792],["ister",-12.240210269338636],["ĉĊ",-13.156501001212792],["Ġbefore",-11.7702066400929],["ale",-12.751035893104628],["other",-12.240210269338636],["Ġbecause",-11.652423604436516],["roid",-12.463353820652848],["Ġed",-12.463353820652848],["ik",-13.156501001212792],["reg",-12.751035893104628],["ĠDe",-12.463353820652848],["Ġdist",-12.05788871254468],["},Ċ",-12.751035893104628],["Ġstate",-11.903738032717424],["Ġcons",-12.05788871254468],["rint",-12.463353820652848],["att",-12.751035893104628],["Ġhere",-12.05788871254468],["ined",-12.463353820652848],["Ġfinal",-11.903738032717424],["Ġ\"\"",-12.463353820652848],["Key",-12.751035893104628],["LO",-13.156501001212792],["Ġdel",-12.240210269338636],["pty",-12.751035893104628],["thing",-12.240210269338636],["ĠAnd",-12.240210269338636],["Ġrun",-12.240210269338636],["ĠX",-12.751035893104628],["ym",-13.156501001212792],[".app",-12.463353820652848],["Ġvery",-12.05788871254468],["ces",-12.751035893104628],["_N",-13.156501001212792],["ared",-12.463353820652848],["ward",-12.463353820652848],["list",-12.463353820652848],["ited",-12.463353820652848],["olog",-12.463353820652848],["itch",-12.463353820652848],["Box",-12.751035893104628],["ife",-12.751035893104628],["Ġac",-12.463353820652848],["Ġmodel",-11.903738032717424],["Ġmon",-12.240210269338636],["Ġway",-12.240210269338636],["lete",-12.463353820652848],["Ġcall",-12.05788871254468],["Ġatt",-12.240210269338636],["Ġcal",-12.240210269338636],["vert",-12.463353820652848],["Ġdec",-12.240210269338636],["lease",-12.240210269338636],["oun",-12.751035893104628],["Ġ});Ċ",-12.05788871254468],["fr",-13.156501001212792],["formation",-11.652423604436516],["etail",-12.240210269338636],["Ġnum",-12.240210269338636],["aj",-13.156501001212792],["query",-12.240210269338636],["Ġwell",-12.05788871254468],["Ġobject",-11.7702066400929],["ĠAs",-12.463353820652848],["Ġyears",-11.903738032717424],["Color",-12.240210269338636],["IS",-13.156501001212792],["Ġdefault",-11.652423604436516],["Wh",-13.156501001212792],["Ġins",-12.240210269338636],["aint",-12.463353820652848],["Ġjava",-12.05788871254468],["Ġsim",-12.240210269338636],["ĠAr",-12.463353820652848],["mon",-12.751035893104628],["til",-12.751035893104628],["();čĊ",-12.240210269338636],["):",-13.156501001212792],["Set",-12.751035893104628],["atter",-12.240210269338636],["Ġview",-12.05788871254468],["Ġpres",-12.05788871254468],["array",-12.240210269338636],["We",-13.156501001212792],["At",-13.156501001212792],["Ġbel",-12.240210269338636],["Ġmany",-12.05788871254468],["Man",-12.751035893104628],["ender",-12.240210269338636],["Ġbeing",-11.903738032717424],["Ġgood",-12.05788871254468],["ĉĉĉĉĉĉ",-12.05788871254468],["ational",-11.903738032717424],["ware",-12.463353820652848],[".log",-12.463353820652848],["{čĊ",-12.751035893104628],["Ġusing",-11.903738032717424],["_B",-13.156501001212792],["Ġ:=",-12.463353820652848],["_w",-13.156501001212792],["ists",-12.463353820652848],["lish",-12.463353820652848],["Ġstud",-12.05788871254468],["ĠAl",-12.463353820652848],["Ġgu",-12.463353820652848],["config",-12.05788871254468],["uring",-12.240210269338636],["time",-12.463353820652848],["oken",-12.463353820652848],["amespace",-11.7702066400929],["Ġrequest",-11.652423604436516],["Ġchild",-11.903738032717424],["ĠÃ",-12.751035893104628],["lob",-12.751035893104628],["Ġparam",-11.903738032717424],["Ġ}čĊ",-12.240210269338636],["Ġecho",-12.05788871254468],["function",-11.7702066400929],["********************************",-10.38391227897301],["ps",-13.156501001212792],["Element",-11.903738032717424],["alk",-12.751035893104628],["lication",-11.7702066400929],["by",-13.156501001212792],["Size",-12.463353820652848],["rawing",-12.05788871254468],["Ġperson",-11.7702066400929],["ĠĠĠĠĠĠĠĠĠĠĠĠĠĠĠĠĠ",-10.323287657156577],["\\n",-13.156501001212792],["object",-12.05788871254468],["ince",-12.463353820652848],["En",-13.156501001212792],["File",-12.463353820652848],["uf",-13.156501001212792],["ffect",-12.240210269338636],["AC",-13.156501001212792],["Ġstyle",-11.903738032717424],["summary",-11.903738032717424],["Ġque",-12.240210269338636],["_r",-13.156501001212792],["Ġ($",-12.463353820652848],["Model",-12.240210269338636],["ident",-12.240210269338636],["Ġmethod",-11.7702066400929],["IL",-13.156501001212792],["ott",-12.751035893104628],["less",-12.463353820652848],["ING",-12.751035893104628],["Ġ()",-12.463353820652848],["Ġexpect",-11.7702066400929],["ync",-12.751035893104628],["package",-11.903738032717424],["urs",-12.751035893104628],["Ġprot",-12.05788871254468],["./",-13.156501001212792],["pre",-12.751035893104628],["Ġ)Ċ",-12.463353820652848],["ma",-13.156501001212792],["Ġsur",-12.240210269338636],["Ġfound",-11.903738032717424],["Info",-12.463353820652848],["par",-12.751035893104628],["imes",-12.463353820652848],[".e",-13.156501001212792],["ains",-12.463353820652848],["Ġpost",-12.05788871254468],["-d",-13.156501001212792],["olean",-12.240210269338636],["Ġsl",-12.463353820652848],["PE",-13.156501001212792],["Ġsuch",-12.05788871254468],["select",-12.05788871254468],["ainer",-12.240210269338636],["Ġthink",-11.903738032717424],["Ġdiffer",-11.7702066400929],[".r",-13.156501001212792],["/**Ċ",-12.463353820652848],["FF",-13.156501001212792],["ool",-12.751035893104628],["plate",-12.240210269338636],["qual",-12.463353820652848],["ĠFor",-12.240210269338636],["Ġmuch",-12.05788871254468],["uc",-13.156501001212792],["(new",-12.463353820652848],["odule",-12.240210269338636],["Ġsom",-12.240210269338636],["Ġhttp",-12.05788871254468],["ĠList",-12.05788871254468],["Ġcount",-11.903738032717424],["Ġinst",-12.05788871254468],["char",-12.463353820652848],["mit",-12.751035893104628],[".id",-12.751035893104628],["aking",-12.240210269338636],["Ġgener",-11.903738032717424],["px",-13.156501001212792],["vice",-12.463353820652848],["_data",-12.240210269338636],["ĠNULL",-12.05788871254468],["}čĊ",-12.751035893104628],["idd",-12.751035893104628],["ãĢĤ",-12.751035893104628],["Ġmed",-12.240210269338636],["org",-12.751035893104628],["ider",-12.463353820652848],["ache",-12.463353820652848],["work",-12.463353820652848],["Ġcheck",-11.903738032717424],["ween",-12.463353820652848],["Ġ((",-12.463353820652848],["the",-12.751035893104628],["ants",-12.463353820652848],["><",-13.156501001212792],[".B",-13.156501001212792],["-c",-13.156501001212792],["Ġopen",-12.05788871254468],["Ġest",-12.240210269338636],["ĠĠĠĠĠĠĠĠĊ",-11.01643483771652],["Ġnext",-12.05788871254468],["IM",-13.156501001212792],["ÑĤ",-13.156501001212792],["OT",-13.156501001212792],["Ã³",-13.156501001212792],["Ġfollow",-11.7702066400929],["content",-11.903738032717424],["ĠĠĠĠĠĠĠĠĠĠĠĠ",-10.67159435142479],["Ġinclud",-11.7702066400929],["HE",-13.156501001212792],["ĠRes",-12.240210269338636],["Ġhref",-12.05788871254468],["Ð¸",-13.156501001212792],["Ġcar",-12.240210269338636],["ypes",-12.463353820652848],["image",-12.240210269338636],["Un",-13.156501001212792],["Ġbool",-12.05788871254468],["AD",-13.156501001212792],["Ġgame",-12.05788871254468],[".Form",-12.240210269338636],["rows",-12.463353820652848],["*/",-13.156501001212792],["velop",-12.240210269338636],[".Drawing",-11.7702066400929],["Ġpath",-12.05788871254468],["ision",-12.240210269338636],["Ġeach",-12.05788871254468],["ĠPl",-12.463353820652848],["_type",-12.240210269338636],["Path",-12.463353820652848],["nection",-11.903738032717424],["Ġav",-12.463353820652848],["').",-12.751035893104628],["Ġsupport",-11.652423604436516],["ENT",-12.751035893104628],["rem",-12.751035893104628],["\").",-12.751035893104628],["Ġown",-12.240210269338636],["Ġcor",-12.240210269338636],["count",-12.240210269338636],["miss",-12.463353820652848],["ually",-12.240210269338636],["Ġmem",-12.240210269338636],["std",-12.751035893104628],["ience",-12.240210269338636],["search",-12.05788871254468],["\"ĊĊ",-12.751035893104628],["Form",-12.463353820652848],["Ġsex",-12.240210269338636],["ename",-12.240210269338636],["Ġsign",-12.05788871254468],["Ġet",-12.463353820652848],["ĠĠĠĠĠĠĠĠĠĠ",-10.853915908218744],["','",-12.751035893104628],["ĠApp",-12.240210269338636],["Ġthose",-11.903738032717424],["off",-12.751035893104628],["Ġerr",-12.240210269338636],["Ġsystem",-11.7702066400929],["Ġbest",-12.05788871254468],["code",-12.463353820652848],["Ġsame",-12.05788871254468],["Ġdi",-12.463353820652848],["uss",-12.751035893104628],["Ġcreate",-11.7702066400929],["ather",-12.240210269338636],["Array",-12.240210269338636],[".in",-12.751035893104628],["fe",-13.156501001212792],["Service",-11.903738032717424],["UN",-13.156501001212792],["ats",-12.751035893104628],["ĠZ",-12.751035893104628],["alth",-12.463353820652848],["Ġmade",-12.05788871254468],["true",-12.463353820652848],["AB",-13.156501001212792],["Ġmark",-12.05788871254468],["rid",-12.751035893104628],["ified",-12.240210269338636],[",čĊ",-12.751035893104628],["yn",-13.156501001212792],["press",-12.240210269338636],["Ġgroup",-11.903738032717424],["Ġfin",-12.240210269338636],["ĠLicense",-11.652423604436516],["Field",-12.240210269338636],["eger",-12.463353820652848],["Ġworld",-11.903738032717424],["iness",-12.240210269338636],["ty",-13.156501001212792],["Ġprocess",-11.652423604436516],["(b",-13.156501001212792],["Ġcre",-12.240210269338636],["arn",-12.751035893104628],["ives",-12.463353820652848],["Ġmain",-12.05788871254468],["ideo",-12.463353820652848],["_g",-13.156501001212792],["AG",-13.156501001212792],["valid",-12.240210269338636],["img",-12.751035893104628],["PI",-13.156501001212792],["Ġcolor",-11.903738032717424],["Ġreport",-11.7702066400929],["Ġtake",-12.05788871254468],["rib",-12.751035893104628],["OM",-13.156501001212792],["Ġday",-12.240210269338636],["Request",-11.903738032717424],["Ġsk",-12.463353820652848],["bers",-12.463353820652848],["ĉs",-13.156501001212792],[".Add",-12.463353820652848],["oot",-12.751035893104628],["Image",-12.240210269338636],["Ġcomple",-11.7702066400929],["ollection",-11.652423604436516],["Ġtop",-12.240210269338636],["Ġfree",-12.05788871254468],["AS",-13.156501001212792],["De",-13.156501001212792],["ĠOn",-12.463353820652848],["IG",-13.156501001212792],["eta",-12.751035893104628],["Date",-12.463353820652848],["Ġaction",-11.7702066400929],["Over",-12.463353820652848],["itor",-12.463353820652848],["ĠĠĠĠĠĠĠĠĠĠĠĠĠĠĠĠĠĠĠĠĠĠĠĠĠĠĠĠĠĠĠĠĠĠĠ",-9.601152939723375],["not",-12.751035893104628],["Ġindex",-11.903738032717424],["her",-12.751035893104628],["icon",-12.463353820652848],["On",-13.156501001212792],[";čĊčĊ",-12.240210269338636],["ivity",-12.240210269338636],["mand",-12.463353820652848],[".Windows",-11.7702066400929],["OL",-13.156501001212792],["Ġreal",-12.05788871254468],["Ġmax",-12.240210269338636],["land",-12.463353820652848],["....",-12.463353820652848],["raph",-12.463353820652848],["Ġbuild",-11.903738032717424],["leg",-12.751035893104628],["assword",-11.903738032717424],["?ĊĊ",-12.751035893104628],["âĢ¦",-12.751035893104628],["ook",-12.751035893104628],["uck",-12.751035893104628],["Ġmessage",-11.652423604436516],["test",-12.463353820652848],["ivers",-12.240210269338636],["Ġinput",-11.903738032717424],["Ġart",-12.240210269338636],["Ġbetween",-11.652423604436516],["Get",-12.751035893104628],["enter",-12.240210269338636],["ground",-12.05788871254468],["ene",-12.751035893104628],["Ã¡",-13.156501001212792],[".length",-11.903738032717424],["Node",-12.463353820652848],["(i",-13.156501001212792],["Class",-12.240210269338636],["for",-12.751035893104628],["ĠâĢĶ",-12.240210269338636],["ten",-12.751035893104628],["oin",-12.751035893104628],["Ġke",-12.463353820652848],["ui",-13.156501001212792],["ĠIN",-12.463353820652848],["Ġtable",-11.903738032717424],["sub",-12.751035893104628],["ĠLe",-12.463353820652848],["Ġhead",-12.05788871254468],["Ġmust",-12.05788871254468],["////////////////",-11.077059459532956],[".util",-12.240210269338636],["Context",-11.903738032717424],["Ġorder",-11.903738032717424],["Ġmov",-12.240210269338636],["over",-12.463353820652848],["Ġcontin",-11.7702066400929],["Ġsay",-12.240210269338636],["static",-12.05788871254468],[".Text",-12.240210269338636],["ĠclassName",-11.451752908974369],["pany",-12.463353820652848],["Ġter",-12.240210269338636],["head",-12.463353820652848],["rg",-13.156501001212792],["Ġproduct",-11.652423604436516],["This",-12.463353820652848],[".âĢĿ",-12.463353820652848],["ĠBut",-12.240210269338636],["loy",-12.751035893104628],["Ġdouble",-11.7702066400929],["sg",-13.156501001212792],["Ġplace",-11.903738032717424],[".x",-13.156501001212792],["message",-11.903738032717424],["Ġinformation",-11.2846988243112],["private",-11.903738032717424],["Ġoper",-12.05788871254468],["ced",-12.751035893104628],["db",-13.156501001212792],["\"></",-12.463353820652848],["Param",-12.240210269338636],["icle",-12.463353820652848],["Ġweek",-12.05788871254468],["Ġprop",-12.05788871254468],["table",-12.240210269338636],["idget",-12.240210269338636],["place",-12.240210269338636],["Prop",-12.463353820652848],["ĠAll",-12.240210269338636],["els",-12.751035893104628],["box",-12.751035893104628],[".ĊĊĊĊ",-12.240210269338636],[".R",-13.156501001212792],["ĠTo",-12.463353820652848],["iter",-12.463353820652848],["Sh",-13.156501001212792],["uration",-11.903738032717424],["older",-12.240210269338636],["_list",-12.240210269338636],["come",-12.463353820652848],["Ġsw",-12.463353820652848],["ization",-11.903738032717424],["ĉfor",-12.463353820652848],["bl",-13.156501001212792],["Ġprogram",-11.652423604436516],["(e",-13.156501001212792],["ape",-12.751035893104628],["check",-12.240210269338636],[".Forms",-12.05788871254468],["Ġund",-12.240210269338636],["ategory",-11.903738032717424],["ags",-12.751035893104628],["Ġresponse",-11.54706308877869],["US",-13.156501001212792],["request",-11.903738032717424],["Ġstruct",-11.7702066400929],["escription",-11.54706308877869],["Ġcode",-12.05788871254468],["_H",-13.156501001212792],["uffer",-12.240210269338636],["Ġwithout",-11.652423604436516],["lobal",-12.240210269338636],["Manager",-11.903738032717424],["ilter",-12.240210269338636],["PO",-13.156501001212792],["ĉthis",-12.240210269338636],["option",-12.05788871254468],["Ġsol",-12.240210269338636],["Ġ===",-12.240210269338636],["akes",-12.463353820652848],["Controller",-11.54706308877869],["Message",-11.903738032717424],["Ġref",-12.240210269338636],["ever",-12.463353820652848],["ĠSo",-12.463353820652848],["aining",-12.05788871254468],[".append",-11.903738032717424],["Ġstill",-11.903738032717424],["Ġprovid",-11.7702066400929],["Ġassert",-11.7702066400929],["med",-12.751035893104628],["Ġcap",-12.240210269338636],["usiness",-11.903738032717424],["Ġrep",-12.240210269338636],["tings",-12.240210269338636],["ved",-12.751035893104628],[".N",-13.156501001212792],["api",-12.751035893104628],["OD",-13.156501001212792],["Ġfield",-11.903738032717424],["iven",-12.463353820652848],["oto",-12.751035893104628],["âĢľ",-12.751035893104628],["col",-12.751035893104628],["(x",-13.156501001212792],["ght",-12.751035893104628],["Result",-12.05788871254468],["Code",-12.463353820652848],[".is",-12.751035893104628],["link",-12.463353820652848],["Ġcour",-12.05788871254468],["An",-13.156501001212792],["Ġteam",-12.05788871254468],["ĉint",-12.463353820652848],["ift",-12.751035893104628],["Ġsecond",-11.7702066400929],["Ġgoing",-11.903738032717424],["Ġrange",-11.903738032717424],["_E",-13.156501001212792],["ness",-12.463353820652848],["Ġfam",-12.240210269338636],["Ġnil",-12.240210269338636],["ĠCont",-12.05788871254468],["ailable",-11.903738032717424],["utes",-12.463353820652848],["atab",-12.463353820652848],["Ġfact",-12.05788871254468],["Ġvis",-12.240210269338636],["(&",-13.156501001212792],["ĠAN",-12.463353820652848],["Al",-13.156501001212792],["title",-12.240210269338636],["Ġandroid",-11.652423604436516],["CE",-13.156501001212792],["\\\"",-13.156501001212792],["irt",-12.751035893104628],["Ġwrit",-12.05788871254468],["Ð½",-13.156501001212792],["ĉm",-13.156501001212792],["ftware",-12.05788871254468],["ond",-12.751035893104628],["Ġret",-12.240210269338636],["osition",-11.903738032717424],["Ġhome",-12.05788871254468],["Ġleft",-12.05788871254468],["args",-12.463353820652848],["meric",-12.240210269338636],["Ġdirect",-11.7702066400929],["oci",-12.751035893104628],["Pl",-13.156501001212792],["As",-13.156501001212792],["ret",-12.751035893104628],["ado",-12.751035893104628],["Of",-13.156501001212792],["chn",-12.751035893104628],["ĠGet",-12.240210269338636],["ee",-13.156501001212792],["ross",-12.463353820652848],["();",-12.751035893104628],["____",-12.463353820652848],[".ph",-12.751035893104628],["It",-13.156501001212792],["oute",-12.463353820652848],["Ġexper",-11.903738032717424],["chool",-12.240210269338636],["www",-12.751035893104628],["},",-13.156501001212792],["Ġallow",-11.903738032717424],["ĠÂ",-12.751035893104628],["())",-12.751035893104628],["size",-12.463353820652848],["ism",-12.751035893104628],["ai",-13.156501001212792],["tract",-12.240210269338636],["ane",-12.751035893104628],["...ĊĊ",-12.240210269338636],["context",-11.903738032717424],["Ġbeg",-12.240210269338636],["CH",-13.156501001212792],["Ġpage",-12.05788871254468],["hip",-12.751035893104628],["no",-13.156501001212792],["core",-12.463353820652848],["sp",-13.156501001212792],["Ġdifferent",-11.451752908974369],["iable",-12.240210269338636],["ĠMe",-12.463353820652848],["_IN",-12.751035893104628],["button",-12.05788871254468],["ĠIs",-12.463353820652848],["ervices",-11.903738032717424],["Ġca",-12.463353820652848],["Ġaround",-11.7702066400929],["App",-12.751035893104628],["ration",-12.05788871254468],["Ġrece",-12.05788871254468],["Ġreally",-11.7702066400929],["Ġimage",-11.903738032717424],["Ġtarget",-11.7702066400929],["Ġdep",-12.240210269338636],["opyright",-11.7702066400929],["tra",-12.751035893104628],["ingle",-12.240210269338636],["ital",-12.463353820652848],["Layout",-12.05788871254468],["Ġboth",-12.05788871254468],["Override",-11.7702066400929],["arm",-12.751035893104628],["=>",-13.156501001212792],["aterial",-11.903738032717424],["iled",-12.463353820652848],["Ġput",-12.240210269338636],["Qu",-13.156501001212792],["ÑĢ",-13.156501001212792],["ung",-12.751035893104628],["map",-12.751035893104628],["ĉĉĉĉĉĉĉĉ",-11.7702066400929],["Ġlevel",-11.903738032717424],["Component",-11.652423604436516],["book",-12.463353820652848],["creen",-12.240210269338636],["_RE",-12.751035893104628],["Ġconfig",-11.7702066400929],["ãģ",-13.156501001212792],["Or",-13.156501001212792],[".data",-12.240210269338636],["Ġdocument",-11.54706308877869],["\",\"",-12.751035893104628],["tribute",-11.903738032717424],["ux",-13.156501001212792],["Log",-12.751035893104628],["ference",-11.903738032717424],["post",-12.463353820652848],["_e",-13.156501001212792],["Ġlocal",-11.903738032717424],["andom",-12.240210269338636],["assert",-12.05788871254468],["Val",-12.751035893104628],["lected",-12.05788871254468],["ina",-12.751035893104628],["atabase",-11.903738032717424],["Add",-12.751035893104628],["Ġcontent",-11.652423604436516],[".print",-12.05788871254468],["signed",-12.05788871254468],["ric",-12.751035893104628],[".\"ĊĊ",-12.463353820652848],["Ġfa",-12.463353820652848],["!ĊĊ",-12.751035893104628],["-f",-13.156501001212792],["ived",-12.463353820652848],["Ġquest",-11.903738032717424],[".ex",-12.751035893104628],["Ġfloat",-11.903738032717424],["Ġdevelop",-11.652423604436516],["Ð¾Ð",-12.751035893104628],["Map",-12.751035893104628],["ading",-12.240210269338636],["Ġposs",-12.05788871254468],["UE",-13.156501001212792],["namespace",-11.652423604436516],["_O",-13.156501001212792],["ĉb",-13.156501001212792],[".Get",-12.463353820652848],[">(",-13.156501001212792],["json",-12.463353820652848],["etails",-12.05788871254468],["Ġtoo",-12.240210269338636],["Ġextends",-11.652423604436516],["ĠNone",-12.05788871254468],["Ġfore",-12.05788871254468],["(String",-11.903738032717424],["format",-12.05788871254468],["Ġgreat",-11.903738032717424],["inter",-12.240210269338636],["cale",-12.463353820652848],["Ñģ",-13.156501001212792],["ron",-12.751035893104628],["iving",-12.240210269338636],["Ent",-12.751035893104628],["ency",-12.463353820652848],["xt",-13.156501001212792],["oy",-13.156501001212792],["Ġmonth",-11.903738032717424],["Ġhapp",-12.05788871254468],["Ġsuper",-11.903738032717424],["bar",-12.751035893104628],["default",-11.903738032717424],["_de",-12.751035893104628],["ords",-12.463353820652848],["ln",-13.156501001212792],["({Ċ",-12.751035893104628],["ĠInd",-12.240210269338636],["ases",-12.463353820652848],["Ġtitle",-11.903738032717424],["Ġcontext",-11.652423604436516],["oh",-13.156501001212792],["-p",-13.156501001212792],["Em",-13.156501001212792],["Ġmet",-12.240210269338636],["Test",-12.463353820652848],["Ġlife",-12.05788871254468],["_v",-13.156501001212792],["ĠUS",-12.463353820652848],["UI",-13.156501001212792],["ocation",-11.903738032717424],["md",-13.156501001212792],["Ġ[Ċ",-12.463353820652848],["Ġ]",-12.751035893104628],["sw",-13.156501001212792],["Ġincre",-11.903738032717424],["script",-12.05788871254468],["ential",-12.05788871254468],["ways",-12.463353820652848],[".de",-12.751035893104628],["Ġsrc",-12.240210269338636],["Ġcatch",-11.903738032717424],["ĠAmeric",-11.7702066400929],["//Ċ",-12.751035893104628],["ĠĠĠĠĠĠĠĠĠĠĠĠĠĠ",-10.517443671597531],["Ġpay",-12.240210269338636],["plit",-12.463353820652848],["âĢĶ",-12.751035893104628],["Ġcoun",-12.05788871254468],["obj",-12.751035893104628],[".php",-12.463353820652848],["Ġchange",-11.7702066400929],["ething",-12.05788871254468],["'re",-12.751035893104628],["aster",-12.240210269338636],["los",-12.751035893104628],["lation",-12.05788871254468],["ĠĠĊ",-12.240210269338636],["Le",-13.156501001212792],["Ã¤",-13.156501001212792],["({",-13.156501001212792],["ready",-12.240210269338636],["ĠNo",-12.463353820652848],["Ġposition",-11.54706308877869],["Ġold",-12.240210269338636],["Ġbook",-12.05788871254468],["abled",-12.240210269338636],["bug",-12.751035893104628],["Hand",-12.463353820652848],["};ĊĊ",-12.463353820652848],["isplay",-12.05788871254468],["aving",-12.240210269338636],["Ġgover",-11.903738032717424],["Ġversion",-11.652423604436516],["System",-12.05788871254468],["nect",-12.463353820652848],["response",-11.7702066400929],["Style",-12.240210269338636],["Up",-13.156501001212792],["angu",-12.463353820652848],["Ġthree",-11.903738032717424],["init",-12.463353820652848],["ero",-12.751035893104628],["Ġlaw",-12.240210269338636],["endif",-12.240210269338636],["Ġbase",-12.05788871254468],["email",-12.240210269338636],["(l",-13.156501001212792],["_V",-13.156501001212792],["Ġconf",-12.05788871254468],["ATE",-12.751035893104628],["Ġduring",-11.7702066400929],["tes",-12.751035893104628],["Ġconsole",-11.652423604436516],["ĠPr",-12.463353820652848],["Ġspe",-12.240210269338636],["ves",-12.751035893104628],["path",-12.463353820652848],["ialog",-12.240210269338636],["dition",-12.05788871254468],["_to",-12.751035893104628],["ards",-12.463353820652848],["Ġagainst",-11.652423604436516],["etwork",-12.05788871254468],["ĠPh",-12.463353820652848],["_L",-13.156501001212792],["cur",-12.751035893104628],["imit",-12.463353820652848],["With",-12.463353820652848],["Ġpower",-11.903738032717424],["ium",-12.751035893104628],["';ĊĊ",-12.463353820652848],["Ġwom",-12.240210269338636],["left",-12.463353820652848],["ources",-12.05788871254468],["atri",-12.463353820652848],["ĠIm",-12.463353820652848],["ĠMan",-12.240210269338636],["orth",-12.463353820652848],["${",-13.156501001212792],["quals",-12.240210269338636],["ese",-12.751035893104628],["_size",-12.240210269338636],["Ġiss",-12.240210269338636],["otal",-12.463353820652848],["-g",-13.156501001212792],["ique",-12.463353820652848],["rame",-12.463353820652848],["Ġwidth",-11.903738032717424],["erg",-12.751035893104628],[")(",-13.156501001212792],["ittle",-12.240210269338636],["TR",-13.156501001212792],["ĠThey",-12.05788871254468],["ences",-12.240210269338636],["rl",-13.156501001212792],["ons",-12.751035893104628],["Ġlabel",-11.903738032717424],[".y",-13.156501001212792],["-t",-13.156501001212792],["update",-12.05788871254468],["anel",-12.463353820652848],["sc",-13.156501001212792],[".to",-12.751035893104628],["Ġproject",-11.652423604436516],["Ã¼",-13.156501001212792],["Ġelement",-11.652423604436516],["Ġsuccess",-11.652423604436516],["ĉĉĊ",-12.751035893104628],[".sh",-12.751035893104628],["ram",-12.751035893104628],["ched",-12.463353820652848],["())Ċ",-12.463353820652848],["Ġ(Ċ",-12.463353820652848],["Ġdate",-12.05788871254468],["Ġtot",-12.240210269338636],["_ST",-12.751035893104628],["All",-12.751035893104628],["ification",-11.652423604436516],["ĉvar",-12.463353820652848],["Ġtri",-12.240210269338636],["chem",-12.463353820652848],["my",-13.156501001212792],["Ġbig",-12.240210269338636],["ĠAd",-12.463353820652848],["ĠAt",-12.463353820652848],["ots",-12.751035893104628],["num",-12.751035893104628],["Act",-12.751035893104628],["Ġmap",-12.240210269338636],["era",-12.751035893104628],["cope",-12.463353820652848],[".$",-13.156501001212792],[",âĢĿ",-12.463353820652848],["Ġpop",-12.240210269338636],["Ġfew",-12.240210269338636],["Ġlen",-12.240210269338636],["uid",-12.751035893104628],["eters",-12.240210269338636],["ules",-12.463353820652848],["ÃŃ",-13.156501001212792],["source",-12.05788871254468],["https",-12.240210269338636],["Ġdem",-12.240210269338636],["Ġear",-12.240210269338636],["################",-11.077059459532956],["Ġmatch",-11.903738032717424],["ories",-12.240210269338636],["aces",-12.463353820652848],["ĠCl",-12.463353820652848],["Ġnode",-12.05788871254468],["irc",-12.751035893104628],["local",-12.240210269338636],["unity",-12.240210269338636],["};Ċ",-12.751035893104628],["Ġanother",-11.652423604436516],["<<",-13.156501001212792],["ogle",-12.463353820652848],["Ġsit",-12.240210269338636],["ework",-12.240210269338636],["TE",-13.156501001212792],[".I",-13.156501001212792],["NS",-13.156501001212792],["ology",-12.240210269338636],["ought",-12.240210269338636],[".Cont",-12.240210269338636],[">>",-13.156501001212792],["Ġcare",-12.05788871254468],["state",-12.240210269338636],["ĉprivate",-11.7702066400929],["Ġeffect",-11.7702066400929],["++)",-12.751035893104628],["_file",-12.240210269338636],["ending",-12.05788871254468],["Line",-12.463353820652848],["For",-12.751035893104628],["ior",-12.751035893104628],["ĠSc",-12.463353820652848],["Ġfun",-12.240210269338636],[".Size",-12.240210269338636],["ĉelse",-12.240210269338636],["])",-13.156501001212792],["start",-12.240210269338636],["vious",-12.240210269338636],["Ġ},",-12.463353820652848],["ours",-12.463353820652848],["Ġleg",-12.240210269338636],["Ġservice",-11.652423604436516],["Ġsince",-11.903738032717424],["iron",-12.463353820652848],["Label",-12.240210269338636],["Ġnon",-12.240210269338636],["Ġlos",-12.240210269338636],["iction",-12.05788871254468],["Ġfull",-12.05788871254468],["acter",-12.240210269338636],["board",-12.240210269338636],["gress",-12.240210269338636],["Ġturn",-12.05788871254468],["ither",-12.240210269338636],[".size",-12.240210269338636],["Ġbody",-12.05788871254468],["resh",-12.463353820652848],["eturn",-12.240210269338636],["(_",-13.156501001212792],["yles",-12.463353820652848],["ormal",-12.240210269338636],["pi",-13.156501001212792],["Ġsomething",-11.451752908974369],["!--",-12.751035893104628],["uint",-12.463353820652848],["Ġprodu",-11.903738032717424],["Ġstand",-11.903738032717424],["Ġproble",-11.7702066400929],["Ġavailable",-11.451752908974369],["mt",-13.156501001212792],["ĠBl",-12.463353820652848],["Ġ...",-12.240210269338636],["Ġblock",-11.903738032717424],["Input",-12.240210269338636],["Ġkeep",-12.05788871254468],["Count",-12.240210269338636],["open",-12.463353820652848],["Ġ['",-12.463353820652848],["Ġthrow",-11.903738032717424],["uilder",-12.05788871254468],["Action",-12.05788871254468],["Ġthings",-11.7702066400929],["True",-12.463353820652848],["Ġurl",-12.240210269338636],["ĠBo",-12.463353820652848],["printf",-12.05788871254468],["Ġred",-12.240210269338636],["js",-13.156501001212792],[".create",-11.903738032717424],["ĠOr",-12.463353820652848],["Status",-12.05788871254468],["Instance",-11.7702066400929],["Ġcontrol",-11.652423604436516],["Ġcome",-12.05788871254468],["Ġcustom",-11.7702066400929],["location",-11.7702066400929],["model",-12.240210269338636],["ĠčĊ",-12.463353820652848],["Ġsource",-11.7702066400929],["Ġeas",-12.240210269338636],[".out",-12.463353820652848],["]ĊĊ",-12.751035893104628],["oney",-12.463353820652848],["Ġawait",-11.903738032717424],["Ġpartic",-11.7702066400929],["AP",-13.156501001212792],["ublish",-12.05788871254468],["odes",-12.463353820652848],["_pro",-12.463353820652848],["ply",-12.751035893104628],["riter",-12.240210269338636],["Ġprov",-12.05788871254468],["Ġmill",-12.05788871254468],["HT",-13.156501001212792],["])Ċ",-12.751035893104628],["Ġchang",-11.903738032717424],["Ġask",-12.240210269338636],["ĠĠĠĠĠĠĠĠĠĠĠĠĠĠĠĠĠĠĠĠĠ",-10.111978563489368],["Ġoutput",-11.7702066400929],["Ġemail",-11.903738032717424],[".push",-12.240210269338636],["Ġ}čĊčĊ",-11.903738032717424],["ination",-11.903738032717424],["atrix",-12.240210269338636],["Table",-12.240210269338636],["uccess",-12.05788871254468],["]);Ċ",-12.463353820652848],["ĠĠĠĠĠĠĠĠĠĠĠĠĠĠĠĠĠĠĠĠĠĠĠĠĠĠĠĠĠĠĠĠĠĠĠĠĠĠĠ",-9.492939355083143],["Ġdisc",-12.05788871254468],["([",-13.156501001212792],["Ġbusiness",-11.54706308877869],["height",-12.05788871254468],[".html",-12.240210269338636],["ta",-13.156501001212792],["field",-12.240210269338636],["Ġrequired",-11.54706308877869],["_R",-13.156501001212792],["Ġgovern",-11.7702066400929],["}čĊčĊ",-12.240210269338636],["lex",-12.751035893104628],[".,",-13.156501001212792],["ĠSet",-12.240210269338636],["urch",-12.463353820652848],["///",-12.751035893104628],["ts",-13.156501001212792],["af",-13.156501001212792],["Ġmight",-11.903738032717424],["istory",-12.05788871254468],["Str",-12.751035893104628],["Ġnever",-11.903738032717424],["Response",-11.7702066400929],["arse",-12.463353820652848],["ada",-12.751035893104628],["ĠHow",-12.240210269338636],["Ġ*)",-12.463353820652848],["Ġ;",-12.751035893104628],["Ġhard",-12.05788871254468],["Ad",-13.156501001212792],["Ġintern",-11.7702066400929],["used",-12.463353820652848],["(data",-12.240210269338636],["mod",-12.751035893104628],["annel",-12.240210269338636],["Ġnp",-12.463353820652848],["ugg",-12.751035893104628],["Ġ/>Ċ",-12.240210269338636],["Ġcalled",-11.7702066400929],["body",-12.463353820652848],["Ġcho",-12.240210269338636],["(r",-13.156501001212792],["_set",-12.463353820652848],["ird",-12.751035893104628],["Ġ>=",-12.463353820652848],["Ġ};Ċ",-12.240210269338636],["Ġoptions",-11.652423604436516],["ĠGener",-11.903738032717424],["Ġheight",-11.7702066400929],["Point",-12.240210269338636],["You",-12.751035893104628],["ety",-12.751035893104628],["Click",-12.240210269338636],["Ġsmall",-11.903738032717424],["Ġide",-12.240210269338636],["Ġaccess",-11.7702066400929],["anguage",-11.903738032717424],["Ġprotected",-11.451752908974369],["Ġjob",-12.240210269338636],["ĠThere",-11.903738032717424],["Def",-12.751035893104628],["Ġaddress",-11.652423604436516],["Ġuint",-12.05788871254468],["Not",-12.751035893104628],["oo",-13.156501001212792],["aps",-12.751035893104628],["<div",-12.463353820652848],["ained",-12.240210269338636],["atur",-12.463353820652848],["Ġsum",-12.240210269338636],["-w",-13.156501001212792],["ĠDate",-12.05788871254468],["Ġlittle",-11.7702066400929],["Ġfri",-12.240210269338636],["YPE",-12.751035893104628],["Ġport",-12.05788871254468],["eh",-13.156501001212792],["pring",-12.240210269338636],["_path",-12.240210269338636],["Ġstatus",-11.7702066400929],["aim",-12.751035893104628],["bool",-12.463353820652848],["Ġappe",-12.05788871254468],["Ġos",-12.463353820652848],[".name",-12.240210269338636],["ension",-12.05788871254468],["_G",-13.156501001212792],["Ġupdate",-11.7702066400929],["Config",-12.05788871254468],["aff",-12.751035893104628],["ERR",-12.751035893104628],["Ġ<=",-12.463353820652848],["ately",-12.240210269338636],["#if",-12.751035893104628],["uction",-12.05788871254468],["ĠTe",-12.463353820652848],["Ġlink",-12.05788871254468],["ĠUser",-12.05788871254468],[".find",-12.240210269338636],[".org",-12.463353820652848],["me",-13.156501001212792],["Ġgiven",-11.903738032717424],["Out",-12.751035893104628],["#endif",-12.05788871254468],["Ġbetter",-11.7702066400929],["Page",-12.463353820652848],["Ġfeel",-12.05788871254468],["enn",-12.751035893104628],["ML",-13.156501001212792],["Ġalready",-11.652423604436516],["Ġincluding",-11.451752908974369],["oogle",-12.240210269338636],["ru",-13.156501001212792],["ically",-12.05788871254468],["prop",-12.463353820652848],["lean",-12.463353820652848],["outer",-12.240210269338636],["Ġalways",-11.7702066400929],["ording",-12.05788871254468],["If",-13.156501001212792],["orage",-12.240210269338636],["Ġparent",-11.7702066400929],["vis",-12.751035893104628],["ĉĉĉĉĉĉĉ",-11.903738032717424],["Ġgot",-12.240210269338636],["stand",-12.240210269338636],["Ġless",-12.05788871254468],["/s",-13.156501001212792],["ĠAss",-12.240210269338636],["apt",-12.751035893104628],["ired",-12.463353820652848],["ĠAdd",-12.240210269338636],["Ġaccount",-11.652423604436516],["ploy",-12.463353820652848],["Ġder",-12.240210269338636],["resent",-12.05788871254468],["Ġlot",-12.240210269338636],["Ġvalid",-11.903738032717424],["ĉd",-13.156501001212792],["Ġbit",-12.240210269338636],["ponents",-11.903738032717424],["Ġfollowing",-11.451752908974369],["_ex",-12.751035893104628],["SON",-12.751035893104628],["Ġsure",-12.05788871254468],["ocial",-12.240210269338636],["Ġprom",-12.05788871254468],["erties",-12.05788871254468],["header",-12.05788871254468],[".pro",-12.463353820652848],["Ġboolean",-11.652423604436516],["Ġsearch",-11.7702066400929],["ken",-12.751035893104628],["Ġorig",-12.05788871254468],["Ġer",-12.463353820652848],["Ed",-13.156501001212792],["EM",-13.156501001212792],["aut",-12.751035893104628],["ling",-12.463353820652848],["ality",-12.240210269338636],["ById",-12.463353820652848],["bed",-12.751035893104628],["ĉcase",-12.240210269338636],["ether",-12.240210269338636],["posit",-12.240210269338636],["Ġinvest",-11.7702066400929],["ĠOR",-12.463353820652848],["Ġsays",-12.05788871254468],["mission",-11.903738032717424],["AME",-12.751035893104628],["Ġtemp",-12.05788871254468],["oad",-12.751035893104628],["Ġrest",-12.05788871254468],["info",-12.463353820652848],["Ġinterest",-11.54706308877869],["Arg",-12.751035893104628],["Ġperform",-11.652423604436516],["pons",-12.463353820652848],["ĠView",-12.05788871254468],["Ġver",-12.240210269338636],["lib",-12.751035893104628],["(const",-12.05788871254468],["Util",-12.463353820652848],["Listener",-11.7702066400929],["arge",-12.463353820652848],["Ġmult",-12.05788871254468],["Ġdie",-12.240210269338636],["Ġsite",-12.05788871254468],["../../",-12.05788871254468],["EL",-13.156501001212792],["Ġvalues",-11.7702066400929],["Ġ})Ċ",-12.240210269338636],["pen",-12.751035893104628],["No",-13.156501001212792],["icro",-12.463353820652848],["Ġbeh",-12.240210269338636],["Ġ'./",-12.240210269338636],["acy",-12.751035893104628],["rec",-12.751035893104628],["()->",-12.463353820652848],["ĉĠĠĠ",-11.903738032717424],["\"))",-12.751035893104628],["Content",-11.903738032717424],["_W",-13.156501001212792],["plement",-11.903738032717424],["Ġwon",-12.240210269338636],["Ġvideo",-11.903738032717424],["adi",-12.751035893104628],["point",-12.240210269338636],["%%",-13.156501001212792],["Ġgl",-12.463353820652848],["erved",-12.240210269338636],["viron",-12.240210269338636],["IF",-13.156501001212792],["uted",-12.463353820652848],["ãĥ",-13.156501001212792],["'m",-13.156501001212792],["Ġcert",-12.05788871254468],["Ġprof",-12.05788871254468],["Ġcell",-12.05788871254468],["ari",-12.751035893104628],["Ġplayer",-11.7702066400929],["ais",-12.751035893104628],["Ġcost",-12.05788871254468],["Ġhum",-12.240210269338636],["(R",-13.156501001212792],["Ġoffic",-11.903738032717424],["ks",-13.156501001212792],[".text",-12.240210269338636],["atures",-12.05788871254468],["Ġtotal",-11.903738032717424],["Ġ*/ĊĊ",-12.05788871254468],["ope",-12.751035893104628],["Ġstat",-12.05788871254468],["UM",-13.156501001212792],["Ġload",-12.05788871254468],["ights",-12.240210269338636],["Ġclear",-11.903738032717424],["uro",-12.751035893104628],["Ġtechn",-11.903738032717424],["upport",-12.05788871254468],["IR",-13.156501001212792],["Ġrow",-12.240210269338636],["Ġseem",-12.05788871254468],["Ġq",-12.751035893104628],["Ġshort",-11.903738032717424],["ĠNot",-12.240210269338636],["ipp",-12.751035893104628],["Group",-12.240210269338636],["section",-11.903738032717424],["max",-12.751035893104628],["irl",-12.751035893104628],["Ġoverride",-11.54706308877869],["Ġcompany",-11.652423604436516],["Ġdone",-12.05788871254468],["\");čĊ",-12.240210269338636],["Ġgre",-12.240210269338636],[".Re",-12.751035893104628],["Ġbelie",-11.903738032717424],["rist",-12.463353820652848],["Ġhealth",-11.7702066400929],["ANT",-12.751035893104628],["()ĊĊ",-12.463353820652848],["ĠBe",-12.463353820652848],[".value",-12.05788871254468],["ĠGr",-12.463353820652848],["ottom",-12.240210269338636],["Ġargs",-12.05788871254468],["PT",-13.156501001212792],["status",-12.05788871254468],["func",-12.463353820652848],["uments",-12.05788871254468],["-h",-13.156501001212792],["Number",-12.05788871254468],[":čĊ",-12.751035893104628],["ĠLog",-12.240210269338636],["erver",-12.240210269338636],["Ġ),Ċ",-12.240210269338636],["ament",-12.240210269338636],["Ġobj",-12.240210269338636],["inc",-12.751035893104628],["Ġchildren",-11.54706308877869],["icy",-12.751035893104628],["IZ",-13.156501001212792],["ands",-12.463353820652848],["ably",-12.463353820652848],["Ġdistrib",-11.652423604436516],["Ġcur",-12.240210269338636],["erial",-12.240210269338636],["Ġdays",-12.05788871254468],["reated",-12.05788871254468],["rect",-12.463353820652848],["-l",-13.156501001212792],["irm",-12.751035893104628],["idden",-12.240210269338636],["omb",-12.751035893104628],["Ġinitial",-11.652423604436516],[".js",-12.751035893104628],["Ġâ",-12.751035893104628],["Query",-12.240210269338636],["Ġonline",-11.7702066400929],["imal",-12.463353820652848],[".con",-12.463353820652848],["au",-13.156501001212792],["Url",-12.751035893104628],["control",-11.903738032717424],["irection",-11.7702066400929],["Ġinstance",-11.54706308877869],["ORT",-12.751035893104628],["ĠFr",-12.463353820652848],["where",-12.240210269338636],["Ġjavax",-11.903738032717424],["Ġorgan",-11.903738032717424],["apter",-12.240210269338636],["Ġreason",-11.7702066400929],["options",-11.903738032717424],["ĠMar",-12.240210269338636],["(a",-13.156501001212792],["Ġwithin",-11.7702066400929],[".âĢĿĊĊ",-12.05788871254468],["ODE",-12.751035893104628],["_DE",-12.751035893104628],["admin",-12.240210269338636],["ended",-12.240210269338636],["Ġdesign",-11.7702066400929],["ĠData",-12.05788871254468],["une",-12.751035893104628],["ĠFile",-12.05788871254468],["root",-12.463353820652848],["Ġcent",-12.05788871254468],["Ġarr",-12.240210269338636],["_add",-12.463353820652848],["len",-12.751035893104628],["page",-12.463353820652848],[",'",-13.156501001212792],["_str",-12.463353820652848],["Ġbro",-12.240210269338636],["ability",-11.903738032717424],["outh",-12.463353820652848],["/c",-13.156501001212792],["pose",-12.463353820652848],["irtual",-12.05788871254468],["earch",-12.240210269338636],["_url",-12.463353820652848],["argin",-12.240210269338636],["Http",-12.463353820652848],["Ġschool",-11.7702066400929],["ava",-12.751035893104628],["Ġconsider",-11.54706308877869],[".label",-12.05788871254468],["ĠArray",-11.903738032717424],["web",-12.751035893104628],["opt",-12.751035893104628],[".println",-11.7702066400929],["ulation",-11.903738032717424],["Ġfunc",-12.05788871254468],["PL",-13.156501001212792],["Ġ\"\\",-12.463353820652848],["ĠText",-12.05788871254468],["actory",-12.05788871254468],["(function",-11.652423604436516],["null",-12.463353820652848],["Ġeng",-12.240210269338636],["down",-12.463353820652848],["Ġinclude",-11.652423604436516],["ĠEn",-12.463353820652848],["ĠDr",-12.463353820652848],["Ġdb",-12.463353820652848],["!!",-13.156501001212792],["side",-12.463353820652848],["Ġinit",-12.05788871254468],["quired",-12.05788871254468],["ĠShe",-12.240210269338636],["Column",-12.05788871254468],["react",-12.240210269338636],["Ġann",-12.240210269338636],["Ġstop",-12.05788871254468],["Ġlater",-11.903738032717424],["ĠThat",-12.05788871254468],["ention",-12.05788871254468],["df",-13.156501001212792],["UG",-13.156501001212792],["ILE",-12.751035893104628],["Ġclient",-11.7702066400929],["raft",-12.463353820652848],["ffer",-12.463353820652848],["POST",-12.463353820652848],["elper",-12.240210269338636],["Ġlove",-12.05788871254468],["quote",-12.240210269338636],["oud",-12.751035893104628],["Ġjson",-12.05788871254468],["Ġable",-12.05788871254468],["Ġmen",-12.240210269338636],["AX",-13.156501001212792],["ĠCopyright",-11.451752908974369],["Ã¶",-13.156501001212792],["avig",-12.463353820652848],["req",-12.751035893104628],["Client",-12.05788871254468],["});Ċ",-12.463353820652848],[".Com",-12.463353820652848],["erc",-12.751035893104628],["ilt",-12.751035893104628],["pecial",-12.05788871254468],["_com",-12.463353820652848],["room",-12.463353820652848],[".Name",-12.240210269338636],["Ġgive",-12.05788871254468],["amb",-12.751035893104628],["ike",-12.751035893104628],["Ġcondition",-11.451752908974369],["client",-12.05788871254468],["ators",-12.240210269338636],[":\"",-13.156501001212792],["Ġcopy",-12.05788871254468],["uture",-12.240210269338636],["iversity",-11.7702066400929],["ernal",-12.240210269338636],["{{",-13.156501001212792],["ĠCan",-12.240210269338636],["ounc",-12.463353820652848],["do",-13.156501001212792],["Ġocc",-12.240210269338636],["Ġappro",-11.903738032717424],["thers",-12.240210269338636],["ze",-13.156501001212792],["Ġeither",-11.7702066400929],["ĠFl",-12.463353820652848],["Ġimportant",-11.451752908974369],["Ġlead",-12.05788871254468],["attr",-12.463353820652848],["ART",-12.751035893104628],["Equal",-12.240210269338636],["Ġda",-12.463353820652848],["etch",-12.463353820652848],["entity",-12.05788871254468],["Ġfamily",-11.7702066400929],["adding",-12.05788871254468],["Ġoption",-11.7702066400929],["Ġexist",-11.903738032717424],["ica",-12.751035893104628],["ĠObject",-11.7702066400929],["'ve",-12.751035893104628],["vers",-12.463353820652848],["itional",-11.903738032717424],["output",-12.05788871254468],["ĠTrue",-12.05788871254468],["ĠOF",-12.463353820652848],["_time",-12.240210269338636],["Ġoffer",-11.903738032717424],["Ġ});ĊĊ",-11.903738032717424],["HER",-12.751035893104628],["egin",-12.463353820652848],["\"\"",-13.156501001212792],["Ġwater",-11.903738032717424],["Ġche",-12.240210269338636],["ĠMy",-12.463353820652848],["ored",-12.463353820652848],["Ġstep",-12.05788871254468],["ances",-12.240210269338636],["CK",-13.156501001212792],["AY",-13.156501001212792],["à¸",-13.156501001212792],["struction",-11.652423604436516],["(C",-13.156501001212792],["ouch",-12.463353820652848],["Stream",-12.05788871254468],["active",-12.05788871254468],["ama",-12.751035893104628],["Entity",-12.05788871254468],["product",-11.903738032717424],["(){Ċ",-12.463353820652848],["Ġgovernment",-11.364741531984736],["ĠID",-12.463353820652848],["ajor",-12.463353820652848],["And",-12.751035893104628],["Ġdisplay",-11.652423604436516],["Ð»",-13.156501001212792],["Ġtimes",-11.903738032717424],["Ġfour",-12.05788871254468],["Ġfar",-12.240210269338636],["Ġpresent",-11.652423604436516],["ĠNS",-12.463353820652848],["Ġ\\Ċ",-12.463353820652848],["uest",-12.463353820652848],["Ġbas",-12.240210269338636],["echo",-12.463353820652848],["child",-12.240210269338636],["ifier",-12.240210269338636],["Handler",-11.903738032717424],["Ġlib",-12.240210269338636],["Property",-11.7702066400929],["translation",-11.451752908974369],["Ġroom",-12.05788871254468],["Ġonce",-12.05788871254468],["Ġ[]",-12.463353820652848],["center",-12.05788871254468],["================================",-10.38391227897301],["Ġresults",-11.652423604436516],["Ġcontinue",-11.54706308877869],["Ġtalk",-12.05788871254468],["_get",-12.463353820652848],["Ġgrow",-12.05788871254468],[".sw",-12.751035893104628],["eb",-13.156501001212792],["ĠPublic",-11.7702066400929],["OP",-13.156501001212792],["ecute",-12.240210269338636],["ols",-12.751035893104628],["Ġ**",-12.463353820652848],["\");ĊĊ",-12.240210269338636],["Ġmass",-12.05788871254468],["ured",-12.463353820652848],[".class",-12.05788871254468],["omic",-12.463353820652848],["Ġmean",-12.05788871254468],["ips",-12.751035893104628],["Ġaut",-12.240210269338636],[");čĊčĊ",-12.05788871254468],["Ġuntil",-11.903738032717424],["Ġmarket",-11.7702066400929],["Ġarea",-12.05788871254468],["uit",-12.751035893104628],["Ġlength",-11.7702066400929],["ĠWith",-12.05788871254468],["structor",-11.7702066400929],["event",-12.240210269338636],["\"><",-12.751035893104628],["ĠSp",-12.463353820652848],["IV",-13.156501001212792],["Ġmus",-12.240210269338636],["iff",-12.751035893104628],["Ġkind",-12.05788871254468],["author",-12.05788871254468],["ounds",-12.240210269338636],["mb",-13.156501001212792],["_key",-12.463353820652848],["width",-12.240210269338636],["pository",-11.7702066400929],["Ġlight",-11.903738032717424],["uk",-13.156501001212792],["Row",-12.751035893104628],["ohn",-12.751035893104628],["alf",-12.751035893104628],["vironment",-11.652423604436516],["apper",-12.240210269338636],["ollections",-11.54706308877869],["Ġside",-12.05788871254468],["_info",-12.240210269338636],["Ġexample",-11.652423604436516],["imary",-12.240210269338636],["Ġwr",-12.463353820652848],["Ġcamp",-12.05788871254468],["cribe",-12.240210269338636],["\"/",-13.156501001212792],["Ġmiss",-12.05788871254468],["way",-12.751035893104628],["Ġbased",-11.903738032717424],["Ġplan",-12.05788871254468],["Vis",-12.751035893104628],["omain",-12.240210269338636],["unk",-12.751035893104628],["Ġaway",-12.05788871254468],["UP",-13.156501001212792],["<T",-13.156501001212792],["OS",-13.156501001212792],["iod",-12.751035893104628],["ĠMon",-12.240210269338636],["âĢĻre",-12.240210269338636],["Ġlik",-12.240210269338636],["Ã§",-13.156501001212792],["ively",-12.240210269338636],[".v",-13.156501001212792],["imer",-12.463353820652848],["izer",-12.463353820652848],["Sub",-12.751035893104628],["Ġbutton",-11.7702066400929],["ĠUp",-12.463353820652848],["Ġexperience",-11.364741531984736],["CL",-13.156501001212792],["Ġrender",-11.7702066400929],["_value",-12.05788871254468],["Ġnear",-12.05788871254468],["URL",-12.751035893104628],["alt",-12.751035893104628],["Ġcountry",-11.652423604436516],["ibility",-11.903738032717424],["(),Ċ",-12.463353820652848],["ead",-12.751035893104628],["Ġauthor",-11.7702066400929],["Ġspecific",-11.54706308877869],["base",-12.463353820652848],["(name",-12.240210269338636],["ones",-12.463353820652848],["ĠDo",-12.463353820652848],["Ġalong",-11.903738032717424],["year",-12.463353820652848],["Ġexpress",-11.652423604436516],[".'",-13.156501001212792],["env",-12.751035893104628],["Ġbegin",-11.903738032717424],["Ġsoftware",-11.54706308877869],["Ġimp",-12.240210269338636],["Ġwin",-12.240210269338636],["Ã³n",-12.751035893104628],["Ġthing",-11.903738032717424],["Trans",-12.240210269338636],["ĠTHE",-12.240210269338636],["Ġ<?",-12.463353820652848],["Ġwhy",-12.240210269338636],["Ġdoesn",-11.903738032717424],["ij",-13.156501001212792],["ging",-12.463353820652848],["ĉg",-13.156501001212792],["Ġsingle",-11.7702066400929],["offset",-12.05788871254468],["arning",-12.05788871254468],["ograph",-12.05788871254468],["ley",-12.751035893104628],["_count",-12.05788871254468],["Ġanal",-12.05788871254468],["create",-12.05788871254468],["/m",-13.156501001212792],["ĠReg",-12.240210269338636],["unch",-12.463353820652848],["=$",-13.156501001212792],["isk",-12.751035893104628],["Ġrights",-11.7702066400929],["(M",-13.156501001212792],["Ġ\"\"\"Ċ",-12.05788871254468],["aper",-12.463353820652848],[".model",-12.05788871254468],["Ġpo",-12.463353820652848],["empty",-12.240210269338636],["artment",-11.903738032717424],["Ġant",-12.240210269338636],["ĠWhen",-12.05788871254468],["Ġwomen",-11.903738032717424],["ĠEd",-12.463353820652848],["Ġseason",-11.7702066400929],["Ġdest",-12.05788871254468],["Ã£",-13.156501001212792],["(h",-13.156501001212792],["Ġpossible",-11.54706308877869],["Ġsever",-11.903738032717424],["Ġbtn",-12.240210269338636],["Ġdidn",-12.05788871254468],["Ġsent",-12.05788871254468],["Ġenc",-12.240210269338636],["Ġcommand",-11.652423604436516],["Ġ],Ċ",-12.240210269338636],["_x",-13.156501001212792],["Ġrecent",-11.7702066400929],["olution",-11.903738032717424],["vector",-12.05788871254468],["ĠBy",-12.463353820652848],["ĠMay",-12.240210269338636],["ĠAct",-12.240210269338636],["»¿",-13.156501001212792],["Ġmoney",-11.903738032717424],["INT",-12.751035893104628],["bsite",-12.240210269338636],["ĉp",-13.156501001212792],[".čĊ",-12.751035893104628],["ï»¿",-12.751035893104628],["sl",-13.156501001212792],["attern",-12.05788871254468],["ĠClass",-11.903738032717424],["Ġtold",-12.05788871254468],["udio",-12.463353820652848],["current",-11.903738032717424],["Ġequ",-12.240210269338636],["Ġauto",-12.05788871254468],["ĠState",-11.903738032717424],["da",-13.156501001212792],["msg",-12.751035893104628],["));ĊĊ",-12.240210269338636],["Ġworking",-11.652423604436516],["Ġquery",-11.903738032717424],["ĠBr",-12.463353820652848],["Ġwindow",-11.7702066400929],["auth",-12.463353820652848],["only",-12.463353820652848],["ĉt",-13.156501001212792],["Ġleast",-11.903738032717424],["agn",-12.751035893104628],["Ġexpl",-12.05788871254468],["itter",-12.240210269338636],["aring",-12.240210269338636],["Ġcolumn",-11.7702066400929],["ĠGeneral",-11.652423604436516],["\":\"",-12.751035893104628],["eral",-12.463353820652848],["rior",-12.463353820652848],["Ġrecord",-11.7702066400929],["IB",-13.156501001212792],["EX",-13.156501001212792],["Ġdat",-12.240210269338636],["Ġmaking",-11.7702066400929],["ued",-12.751035893104628],["ĠCar",-12.240210269338636],["emp",-12.751035893104628],["\".",-13.156501001212792],["ĠMed",-12.240210269338636],["Ġclose",-11.903738032717424],["Ġpercent",-11.652423604436516],["Ġpast",-12.05788871254468],["(g",-13.156501001212792],[":(",-13.156501001212792],["Ġwrite",-11.903738032717424],["Ġmove",-12.05788871254468],["Ġpat",-12.240210269338636],["Control",-11.903738032717424],[".To",-12.751035893104628],["Ġvi",-12.463353820652848],["*/Ċ",-12.751035893104628],["inate",-12.240210269338636],["'ll",-12.751035893104628],["aged",-12.463353820652848],["Null",-12.463353820652848],["Ġspecial",-11.652423604436516],["IZE",-12.751035893104628],["Ġcity",-12.05788871254468],["/*Ċ",-12.751035893104628],["ĠEng",-12.240210269338636],["ixed",-12.463353820652848],["inary",-12.240210269338636],["py",-13.156501001212792],["Ġeff",-12.240210269338636],["ario",-12.463353820652848],["Ġtell",-12.05788871254468],["avor",-12.463353820652848],["Ġselect",-11.7702066400929],["level",-12.240210269338636],["imum",-12.463353820652848],["oper",-12.463353820652848],["Builder",-11.903738032717424],["IP",-13.156501001212792],["'),Ċ",-12.463353820652848],["esc",-12.751035893104628],["Ġfont",-12.05788871254468],["\";ĊĊ",-12.463353820652848],["ĠAm",-12.463353820652848],["ished",-12.240210269338636],["ills",-12.463353820652848],["Inter",-12.240210269338636],["OW",-13.156501001212792],["Ġcourse",-11.7702066400929],["Ġlate",-12.05788871254468],["iddle",-12.240210269338636],["Ġamount",-11.7702066400929],["Ġasync",-11.903738032717424],["ino",-12.751035893104628],["cul",-12.751035893104628],["Ġì",-12.751035893104628],["andle",-12.240210269338636],["_user",-12.240210269338636],["Ġben",-12.240210269338636],["ĠCal",-12.240210269338636],["Ġ$_",-12.463353820652848],["ĠRep",-12.240210269338636],["Ġenough",-11.7702066400929],["Token",-12.240210269338636],[".user",-12.240210269338636],["(j",-13.156501001212792],["Sc",-13.156501001212792],["Width",-12.240210269338636],["now",-12.751035893104628],["atform",-12.05788871254468],["Ġlooking",-11.652423604436516],["Ġhold",-12.05788871254468],["Module",-12.05788871254468],["ITY",-12.751035893104628],["vo",-13.156501001212792],["ison",-12.463353820652848],[".Data",-12.240210269338636],["yc",-13.156501001212792],["Ġpot",-12.240210269338636],["ĠTrump",-11.903738032717424],["idual",-12.240210269338636],["ides",-12.463353820652848],["rt",-13.156501001212792],["Ġproperty",-11.54706308877869],["ĠĠĠĠĠĠĠĠĠĠĠĠĠĠĠĠĠĠĠĠĠĠĠĠĠĠĠĠĠĠĠĠĠĠĠĠĠĠĠĠĠĠĠ",-9.395300885519228],["amework",-11.903738032717424],["go",-13.156501001212792],["Ġlow",-12.240210269338636],["Ġpara",-12.05788871254468],["Ġprice",-11.903738032717424],["ury",-12.751035893104628],["Ġtoday",-11.903738032717424],["roy",-12.751035893104628],["Ġ'/",-12.463353820652848],["Ġpolit",-11.903738032717424],["Ġ''",-12.463353820652848],["ymb",-12.751035893104628],["Ph",-13.156501001212792],["Ġadv",-12.240210269338636],["Ġattack",-11.7702066400929],["ĠSte",-12.240210269338636],["ROM",-12.751035893104628],["ana",-12.751035893104628],["Ġmeans",-11.903738032717424],["Ġstory",-11.903738032717424],["ids",-12.751035893104628],["aken",-12.463353820652848],["Ġmeet",-12.05788871254468],["Ġmom",-12.240210269338636],["ĠâĢĺ",-12.240210269338636],["Ġ?>",-12.463353820652848],["Ġden",-12.240210269338636],["obile",-12.240210269338636],["change",-12.05788871254468],["ĠĠĠĠĠĠĠĠĠĠĠĠĊ",-10.630772356904536],["ici",-12.751035893104628],["na",-13.156501001212792],["ĠForm",-12.05788871254468],["Ġsort",-12.05788871254468],["Select",-12.05788871254468],["pare",-12.463353820652848],["Ġthought",-11.652423604436516],["_con",-12.463353820652848],["Ġtask",-12.05788871254468],["ocus",-12.463353820652848],["ĠDE",-12.463353820652848],["ĠMin",-12.240210269338636],["Ġopt",-12.240210269338636],["ĉbreak",-12.05788871254468],["umer",-12.463353820652848],["KE",-13.156501001212792],["then",-12.463353820652848],["Ġdet",-12.240210269338636],["ĠTest",-12.05788871254468],["ports",-12.240210269338636],["Ġreview",-11.7702066400929],["('/",-12.751035893104628],["move",-12.463353820652848],["Ġswitch",-11.7702066400929],["ERT",-12.751035893104628],["patch",-12.240210269338636],["annot",-12.240210269338636],["ãĤ",-13.156501001212792],["Ġabove",-11.903738032717424],["itive",-12.240210269338636],["Ġquestion",-11.54706308877869],["ĠQu",-12.463353820652848],["ãĢĤĊĊ",-12.240210269338636],["gle",-12.751035893104628],["Ġword",-12.05788871254468],["Ġprovide",-11.652423604436516],["ĠReturn",-11.7702066400929],["Ġresearch",-11.54706308877869],["Ã£o",-12.751035893104628],["ustr",-12.463353820652848],["Ġpublish",-11.652423604436516],["chema",-12.240210269338636],["}}",-13.156501001212792],["ĠCON",-12.240210269338636],["-in",-12.751035893104628],["allback",-11.903738032717424],["Ġcover",-11.903738032717424],["\\\\",-13.156501001212792],["color",-12.240210269338636],["ĠIS",-12.463353820652848],["Ġwhether",-11.652423604436516],["imate",-12.240210269338636],["isc",-12.751035893104628],["Bar",-12.751035893104628],["Ġdiv",-12.240210269338636],["Be",-13.156501001212792],["ourn",-12.463353820652848],["Ġhaving",-11.7702066400929],["lem",-12.751035893104628],["player",-12.05788871254468],["abs",-12.751035893104628],["amera",-12.240210269338636],["ney",-12.751035893104628],["Ġexc",-12.240210269338636],["gether",-12.05788871254468],["plied",-12.240210269338636],["ao",-13.156501001212792],["[$",-13.156501001212792],["Ġ++",-12.463353820652848],["ipe",-12.751035893104628],["show",-12.463353820652848],["/d",-13.156501001212792],["[:",-13.156501001212792],["agement",-11.903738032717424],["lev",-12.751035893104628],["_ID",-12.751035893104628],["rary",-12.463353820652848],["ades",-12.463353820652848],["_se",-12.751035893104628],["ause",-12.463353820652848],["Ġemploy",-11.7702066400929],["Ġ*/čĊ",-12.05788871254468],["Ġfre",-12.240210269338636],["Ġ'@",-12.463353820652848],["Ġcomplet",-11.652423604436516],["Ġlarge",-11.903738032717424],["ral",-12.751035893104628],["\\x",-13.156501001212792],["Ġfac",-12.240210269338636],["<String",-11.903738032717424],["Ġcreated",-11.652423604436516],["uper",-12.463353820652848],[".state",-12.05788871254468],["Ġhost",-12.05788871254468],["eneric",-12.05788871254468],["/b",-13.156501001212792],["(!",-13.156501001212792],["while",-12.240210269338636],["ias",-12.751035893104628],["BUG",-12.751035893104628],["Ġ);ĊĊ",-12.05788871254468],["Ġrole",-12.05788871254468],["Reg",-12.751035893104628],["ĠColor",-11.903738032717424],["Start",-12.240210269338636],["Ġporn",-12.05788871254468],["top",-12.751035893104628],["Ġweb",-12.240210269338636],["Ġdev",-12.240210269338636],["Ġdeal",-12.05788871254468],["++)Ċ",-12.463353820652848],["Integer",-11.903738032717424],["position",-11.7702066400929],[".on",-12.751035893104628],["Ġ(\"",-12.463353820652848],["ä¸",-13.156501001212792],["Ġproblem",-11.652423604436516],["sv",-13.156501001212792],["Ġpress",-11.903738032717424],["ABLE",-12.463353820652848],["ATION",-12.240210269338636],["ĠSee",-12.240210269338636],["anch",-12.463353820652848],["Ġthough",-11.7702066400929],["leep",-12.463353820652848],["Ġ<!--",-12.05788871254468],["Ġpoints",-11.7702066400929],["ĠĠĠĠĠĠĠĠĠĠĠĠĠĠĠĠĠĠĠĠĠĠĠĠĠ",-9.937625176344593],[".J",-13.156501001212792],["Ġ::",-12.463353820652848],["ptr",-12.751035893104628],["DB",-13.156501001212792],["++;Ċ",-12.463353820652848],[".png",-12.463353820652848],["node",-12.463353820652848],["soft",-12.463353820652848],["pond",-12.463353820652848],["Ġever",-12.05788871254468],["----------------------------------------------------------------",-9.690765098413063],["Menu",-12.463353820652848],["('#",-12.751035893104628],["Ġservices",-11.54706308877869],["pg",-13.156501001212792],["})Ċ",-12.751035893104628],["params",-12.05788871254468],["Ġactually",-11.54706308877869],["Ġ\"/",-12.463353820652848],["Empty",-12.240210269338636],["Method",-12.05788871254468],["Ġident",-11.903738032717424],["unic",-12.463353820652848],["Ġmillion",-11.652423604436516],["Ġaff",-12.240210269338636],["style",-12.240210269338636],["Ġconc",-12.05788871254468],["ios",-12.751035893104628],["ignment",-11.903738032717424],["ULT",-12.751035893104628],["Pr",-13.156501001212792],["\";čĊ",-12.463353820652848],["Ġunderstand",-11.364741531984736],["uary",-12.463353820652848],["Ġhappen",-11.7702066400929],["Ġserver",-11.7702066400929],["ĠCo",-12.463353820652848],["SC",-13.156501001212792],["Ġles",-12.240210269338636],["Ġfiles",-11.903738032717424],["Grid",-12.463353820652848],["sql",-12.751035893104628],["Ġoften",-11.903738032717424],["Ġinfo",-12.05788871254468],["_tr",-12.751035893104628],["src",-12.751035893104628],["ony",-12.751035893104628],["Ġspace",-11.903738032717424],["umb",-12.751035893104628],["Ġpassword",-11.54706308877869],["Ġstore",-11.903738032717424],[",ĊĊ",-12.751035893104628],["ĠWhat",-12.05788871254468],["ged",-12.751035893104628],["ĠFalse",-11.903738032717424],["Us",-13.156501001212792],["swer",-12.463353820652848],["_index",-12.05788871254468],["Ġformat",-11.7702066400929],["most",-12.463353820652848],["sm",-13.156501001212792],["New",-12.751035893104628],["Ġdetails",-11.652423604436516],["Ġprob",-12.05788871254468],["ĠAND",-12.240210269338636],["()čĊ",-12.463353820652848],["ilar",-12.463353820652848],["Ġ${",-12.463353820652848],["rypt",-12.463353820652848],[".Collections",-11.364741531984736],["$this",-12.240210269338636],["ĠFree",-12.05788871254468],["_of",-12.751035893104628],["(false",-12.05788871254468],["dated",-12.240210269338636],["Ġ>>",-12.463353820652848],["Ġface",-12.05788871254468],["CTION",-12.240210269338636],["Ġsave",-12.05788871254468],["Ġtyp",-12.240210269338636],["dev",-12.751035893104628],["(\"#",-12.751035893104628],["AGE",-12.751035893104628],["container",-11.652423604436516],["edit",-12.463353820652848],["QL",-13.156501001212792],["Ġitems",-11.903738032717424],["Ġsocial",-11.7702066400929],["ien",-12.751035893104628],["ĠReact",-11.903738032717424],[").ĊĊ",-12.463353820652848],["Ġmar",-12.240210269338636],["Ġredu",-12.05788871254468],["ĠRE",-12.463353820652848],[".put",-12.463353820652848],["Ġmajor",-11.903738032717424],["Cell",-12.463353820652848],["next",-12.463353820652848],["Ġexpected",-11.54706308877869],["Ġyet",-12.240210269338636],["Ġindiv",-11.903738032717424],["tributes",-11.7702066400929],["atis",-12.463353820652848],["amed",-12.463353820652848],["Ġfood",-12.05788871254468],["Source",-12.05788871254468],["(string",-11.903738032717424],["Ġ+Ċ",-12.463353820652848],["ites",-12.463353820652848],["dr",-13.156501001212792],["Ġmembers",-11.652423604436516],["Ġcomb",-12.05788871254468],["items",-12.240210269338636],["ĠPer",-12.240210269338636],["TH",-13.156501001212792],["=True",-12.240210269338636],["Ġbar",-12.240210269338636],["_SE",-12.751035893104628],["comm",-12.463353820652848],["(w",-13.156501001212792],[")ĊĊĊ",-12.463353820652848],["Ġsend",-12.05788871254468],["Ġinc",-12.240210269338636],["unsigned",-11.7702066400929],["FA",-13.156501001212792],["Ġparams",-11.7702066400929],["apping",-12.05788871254468],["ros",-12.751035893104628],["ugin",-12.463353820652848],["fa",-13.156501001212792],["Ġconnection",-11.364741531984736],["Ġ};ĊĊ",-12.05788871254468],["Ġbecome",-11.7702066400929],["Mode",-12.463353820652848],["Ġev",-12.463353820652848],["Ġdiff",-12.05788871254468],["ĠUnited",-11.7702066400929],["Height",-12.05788871254468],["fully",-12.240210269338636],["images",-12.05788871254468],["Ġmakes",-11.903738032717424],["Ġglobal",-11.7702066400929],["Ġcontact",-11.652423604436516],["':Ċ",-12.751035893104628],["Ġabs",-12.240210269338636],["Ð°Ð",-12.751035893104628],["float",-12.240210269338636],["Ġexcept",-11.7702066400929],["ĠPol",-12.240210269338636],["Child",-12.240210269338636],["typ",-12.751035893104628],["Ġcertain",-11.652423604436516],["iÃ³n",-12.463353820652848],["OUT",-12.751035893104628],["Ġimpro",-11.903738032717424],["iles",-12.463353820652848],["Ġ-->Ċ",-12.05788871254468],["ĠPart",-12.05788871254468],["values",-12.05788871254468],["oss",-12.751035893104628],["/**",-12.751035893104628],["ilit",-12.463353820652848],["ĠEvent",-11.903738032717424],["curity",-12.05788871254468],["ster",-12.463353820652848],["Ġcharacter",-11.451752908974369],["Ġnews",-12.05788871254468],["Ġ\",",-12.463353820652848],["Ġdevice",-11.7702066400929],["cel",-12.751035893104628],["login",-12.240210269338636],["heet",-12.463353820652848],["Default",-11.903738032717424],["@\"",-13.156501001212792],["ĉĠ",-12.751035893104628],["click",-12.240210269338636],["(value",-12.05788871254468],["ĠAb",-12.463353820652848],["Ġprevious",-11.54706308877869],["ERROR",-12.240210269338636],["ocal",-12.463353820652848],["Ġmaterial",-11.54706308877869],["Ġbelow",-11.903738032717424],["ĠChrist",-11.7702066400929],["Ġmedia",-11.903738032717424],["cover",-12.240210269338636],["ĠUI",-12.463353820652848],["Ġfail",-12.05788871254468],["Ġblack",-11.903738032717424],["Ġcomponent",-11.451752908974369],["ĠAmerican",-11.54706308877869],["Ġadded",-11.903738032717424],["Ġbuy",-12.240210269338636],["stit",-12.463353820652848],["Ġcame",-12.05788871254468],["Ġdelete",-11.7702066400929],["property",-11.7702066400929],["oding",-12.240210269338636],["Ġcard",-12.05788871254468],["rops",-12.463353820652848],["Ġhttps",-11.903738032717424],["Ġroot",-12.05788871254468],["Ġhandle",-11.7702066400929],["CC",-13.156501001212792],["Back",-12.463353820652848],["emplate",-11.903738032717424],["Ġgetting",-11.652423604436516],["_by",-12.751035893104628],["mail",-12.463353820652848],["_sh",-12.751035893104628],[".assert",-11.903738032717424],["ĠDec",-12.240210269338636],["(true",-12.240210269338636],["Ġcomput",-11.7702066400929],["Ġclaim",-11.903738032717424],["'=>",-12.751035893104628],["ĠSub",-12.240210269338636],["Ġair",-12.240210269338636],["ops",-12.751035893104628],["nav",-12.751035893104628],["ements",-12.05788871254468],["(id",-12.751035893104628],["Ġenter",-11.903738032717424],["anged",-12.240210269338636],["End",-12.751035893104628],["Ġlocation",-11.54706308877869],["Ġnight",-11.903738032717424],["Ġdoing",-11.903738032717424],["ĠRed",-12.240210269338636],["lin",-12.751035893104628],["}ĊĊĊ",-12.463353820652848],["vider",-12.240210269338636],["Ġpick",-12.05788871254468],["Ġwatch",-11.903738032717424],["essages",-11.903738032717424],["Ġhuman",-11.903738032717424],["Ġdam",-12.240210269338636],["pend",-12.463353820652848],["dir",-12.751035893104628],["Ġtax",-12.240210269338636],["Ġgirl",-12.05788871254468],["reet",-12.463353820652848],["Ġbox",-12.240210269338636],["Ġstrong",-11.7702066400929],["(v",-13.156501001212792],["rel",-12.751035893104628],["Ġinterface",-11.451752908974369],["Ġmsg",-12.240210269338636],["fect",-12.463353820652848],["_at",-12.751035893104628],["Ġhouse",-11.903738032717424],["Ġtrack",-11.903738032717424],["');ĊĊ",-12.240210269338636],["je",-13.156501001212792],["ĠJohn",-12.05788871254468],["istr",-12.463353820652848],["(S",-13.156501001212792],["ube",-12.751035893104628],["Ġce",-12.463353820652848],["itted",-12.240210269338636],["VER",-12.751035893104628],["*)",-13.156501001212792],["parent",-12.05788871254468],["Ġapplication",-11.2846988243112],["any",-12.751035893104628],[".swing",-12.05788871254468],["Ġpack",-12.05788871254468],["\\u",-13.156501001212792],["Ġpract",-11.903738032717424],["Ġsection",-11.652423604436516],["ctx",-12.751035893104628],["Ġunsigned",-11.54706308877869],[".Point",-12.05788871254468],["ĠOne",-12.240210269338636],["Ä±",-13.156501001212792],["iple",-12.463353820652848],["aid",-12.751035893104628],["Ñĥ",-13.156501001212792],["Vector",-12.05788871254468],["byte",-12.463353820652848],["Ġwait",-12.05788871254468],["ĠÃł",-12.463353820652848],["Ã¥",-13.156501001212792],["Ġtogether",-11.54706308877869],["Ġthrows",-11.7702066400929],["FO",-13.156501001212792],["'))",-12.751035893104628],["host",-12.463353820652848],["ising",-12.240210269338636],[".view",-12.240210269338636],["Ġterms",-11.903738032717424],["framework",-11.652423604436516],["-r",-13.156501001212792],["Ġapply",-11.903738032717424],["Ġsession",-11.652423604436516],["Options",-11.903738032717424],["uggest",-12.05788871254468],["Ġothers",-11.7702066400929],["witter",-12.05788871254468],["Ġfund",-12.05788871254468],["Init",-12.463353820652848],["__(",-12.751035893104628],["ensor",-12.240210269338636],["GET",-12.751035893104628],["Ġseveral",-11.652423604436516],["ii",-13.156501001212792],["[j",-13.156501001212792],["IO",-13.156501001212792],["Ġtemplate",-11.54706308877869],["Position",-11.7702066400929],["Ġecon",-12.05788871254468],["achine",-12.05788871254468],["Ġil",-12.463353820652848],[".spring",-11.903738032717424],["main",-12.463353820652848],["elt",-12.751035893104628],["iment",-12.240210269338636],["Rec",-12.751035893104628],["mm",-13.156501001212792],["ĠUniversity",-11.364741531984736],["ursor",-12.240210269338636],["ĠĠĠĠĠĠĠĠĠĠĠĠĠĠĠĠĠĠĠĠ",-10.1607687276588],["GL",-13.156501001212792],["icture",-12.05788871254468],["ithub",-12.240210269338636],["cer",-12.751035893104628],["cast",-12.463353820652848],["From",-12.463353820652848],["ales",-12.463353820652848],["Ġsubject",-11.652423604436516],["password",-11.7702066400929],["ny",-13.156501001212792],["Ġesc",-12.240210269338636],[".write",-12.05788871254468],["ï¼Į",-12.751035893104628],["What",-12.463353820652848],[".H",-13.156501001212792],["Ġhistory",-11.652423604436516],["ĠFe",-12.463353820652848],["Ġindividual",-11.364741531984736],["unit",-12.463353820652848],["Ġ-->",-12.240210269338636],["Ġdu",-12.463353820652848],["IST",-12.751035893104628],["Ġusers",-11.903738032717424],["fs",-13.156501001212792],["false",-12.240210269338636],["unt",-12.751035893104628],["Title",-12.240210269338636],["Ġmot",-12.240210269338636],["Ġfuture",-11.7702066400929],["ached",-12.240210269338636],["Ġstarted",-11.652423604436516],["Ġmode",-12.05788871254468],["Ġ'<",-12.463353820652848],["_array",-12.05788871254468],["Ġax",-12.463353820652848],["'];Ċ",-12.463353820652848],["ires",-12.463353820652848],["There",-12.240210269338636],["ught",-12.463353820652848],["tml",-12.751035893104628],["posed",-12.240210269338636],["icult",-12.240210269338636],["Ġtook",-12.05788871254468],["Ġgames",-11.903738032717424],["Ġ}}",-12.463353820652848],["Ġ?>Ċ",-12.240210269338636],["Ġproducts",-11.54706308877869],["Is",-13.156501001212792],["Ġbad",-12.240210269338636],["ĠDes",-12.240210269338636],[".path",-12.240210269338636],["'ĊĊ",-12.751035893104628],["ĠPost",-12.05788871254468],["avel",-12.463353820652848],["(:",-13.156501001212792],["Ġneeds",-11.903738032717424],["Ġknown",-11.903738032717424],["Fl",-13.156501001212792],["Ġexec",-12.05788871254468],["Ġseen",-12.05788871254468],["ume",-12.751035893104628],["Ġborder",-11.7702066400929],["Ġlive",-12.05788871254468],["temp",-12.463353820652848],["Per",-12.751035893104628],["Ġvariable",-11.54706308877869],["iet",-12.751035893104628],["ĠDef",-12.240210269338636],["Ġge",-12.463353820652848],["eme",-12.751035893104628],["_back",-12.240210269338636],["first",-12.240210269338636],["Ġprovided",-11.54706308877869],["////////////////////////////////",-10.38391227897301],["Ġfilename",-11.54706308877869],["Ġhope",-12.05788871254468],["uly",-12.751035893104628],["auto",-12.463353820652848],["find",-12.463353820652848],["_string",-11.903738032717424],["btn",-12.751035893104628],["itude",-12.240210269338636],["Attribute",-11.652423604436516],["Ġyoung",-11.903738032717424],[".txt",-12.463353820652848],["Ġwebsite",-11.652423604436516],["ĠProp",-12.05788871254468],["Ġey",-12.463353820652848],[">();Ċ",-12.240210269338636],["ional",-12.240210269338636],["ARR",-12.751035893104628],["ictionary",-11.652423604436516],["urther",-12.05788871254468],[".</",-12.751035893104628],["ALL",-12.751035893104628],["Ġstudy",-11.903738032717424],["ili",-12.751035893104628],["Ġnetwork",-11.652423604436516],["yl",-13.156501001212792],["istance",-11.903738032717424],["OK",-13.156501001212792],["NU",-13.156501001212792],["rest",-12.463353820652848],["ĠST",-12.463353820652848],["icrosoft",-11.7702066400929],["Ġlimit",-11.903738032717424],["Ġcut",-12.240210269338636],["():Ċ",-12.463353820652848],["Ġcou",-12.240210269338636],["ogn",-12.751035893104628],["Ġsizeof",-11.7702066400929],["ival",-12.463353820652848],["Ġwent",-12.05788871254468],[".z",-13.156501001212792],["Link",-12.463353820652848],["Ġfire",-12.05788871254468],["Ġacross",-11.7702066400929],["Ġcommunity",-11.451752908974369],["region",-12.05788871254468],["NE",-13.156501001212792],["Ref",-12.751035893104628],["Ġofficial",-11.54706308877869],["Ġvisit",-11.903738032717424],["olve",-12.463353820652848],["Ġreceived",-11.54706308877869],["Ġtoken",-11.903738032717424],["Ġmonths",-11.7702066400929],["Ġanim",-12.05788871254468],["Ġparticular",-11.364741531984736],["styles",-12.05788871254468],["ico",-12.751035893104628],["Ġess",-12.240210269338636],[".Control",-11.7702066400929],["ĠÃ©",-12.463353820652848],["ball",-12.463353820652848],["Ġlearn",-11.903738032717424],["inding",-12.05788871254468],["Var",-12.751035893104628],["Ġdecl",-12.05788871254468],["(err",-12.463353820652848],["LECT",-12.463353820652848],["One",-12.751035893104628],["pha",-12.751035893104628],["Ġ~",-12.751035893104628],["fort",-12.463353820652848],["asure",-12.240210269338636],["Ġmind",-12.05788871254468],["ĠEnd",-12.240210269338636],["Check",-12.240210269338636],["Ġquick",-11.903738032717424],["\"),",-12.751035893104628],["AND",-12.751035893104628],["utions",-12.05788871254468],["Base",-12.463353820652848],["________",-11.7702066400929],["Ġcomment",-11.652423604436516],["INE",-12.751035893104628],["âĢĻve",-12.240210269338636],["But",-12.751035893104628],["ĠEl",-12.463353820652848],["ĠUs",-12.463353820652848],["Ġadmin",-11.903738032717424],["mark",-12.463353820652848],["ĠName",-12.05788871254468],["`Ċ",-13.156501001212792],["ĠType",-12.05788871254468],["amic",-12.463353820652848],["pc",-13.156501001212792],["loor",-12.463353820652848],["FT",-13.156501001212792],["Ġopp",-12.240210269338636],["cket",-12.463353820652848],[")->",-12.751035893104628],["tx",-13.156501001212792],["Ġpur",-12.240210269338636],["uel",-12.751035893104628],["ymbol",-12.240210269338636],["uation",-12.05788871254468],["anger",-12.240210269338636],["Ġbackground",-11.364741531984736],["ecess",-12.240210269338636],["efined",-12.05788871254468],["........",-11.7702066400929],["Ġdescription",-11.2846988243112],["Ġrepresent",-11.451752908974369],["\"));Ċ",-12.240210269338636],["pression",-11.7702066400929],["rowser",-12.05788871254468],["Ġseries",-11.7702066400929],["wards",-12.240210269338636],["($_",-12.751035893104628],["aise",-12.463353820652848],["Ġhot",-12.240210269338636],["acity",-12.240210269338636],["ries",-12.463353820652848],["actions",-11.903738032717424],["Create",-12.05788871254468],["adio",-12.463353820652848],["amples",-12.05788871254468],["Ġoriginal",-11.54706308877869],["ensive",-12.05788871254468],["font",-12.463353820652848],["stream",-12.05788871254468],["ï»¿using",-11.7702066400929],[".springframework",-11.077059459532956],["server",-12.05788871254468],["Ġbill",-12.05788871254468],["ACK",-12.751035893104628],["ilename",-11.903738032717424],["Ġframe",-11.903738032717424],["Ġ=Ċ",-12.463353820652848],["Edit",-12.463353820652848],["adius",-12.240210269338636],["Ġdraw",-12.05788871254468],["anks",-12.463353820652848],["Ġdeter",-11.903738032717424],["Ġcomes",-11.903738032717424],["_int",-12.463353820652848],["Ġforeach",-11.652423604436516],["angle",-12.240210269338636],["Ġelect",-11.903738032717424],["pected",-12.05788871254468],["Header",-12.05788871254468],["istration",-11.652423604436516],["False",-12.240210269338636],["ĠGame",-12.05788871254468],["Ġfilter",-11.7702066400929],["Activity",-11.7702066400929],["Ġlarg",-12.05788871254468],["inition",-11.903738032717424],["Ġ\"<",-12.463353820652848],["ised",-12.463353820652848],["Ġremove",-11.7702066400929],["ĠTrans",-11.903738032717424],["met",-12.751035893104628],["see",-12.751035893104628],["Format",-12.05788871254468],["Command",-11.903738032717424],["ĠEX",-12.463353820652848],["None",-12.463353820652848],["Ġfront",-11.903738032717424],["ASE",-12.751035893104628],["ĠRec",-12.240210269338636],["oundation",-11.652423604436516],["Ġvo",-12.463353820652848],["=\\\"",-12.751035893104628],["(*",-13.156501001212792],["Change",-12.05788871254468],[".Write",-12.05788871254468],["group",-12.240210269338636],["ients",-12.240210269338636],["uy",-13.156501001212792],["****************************************************************",-9.690765098413063],["Ġdig",-12.240210269338636],["hr",-13.156501001212792],["(-",-13.156501001212792],["Ġgen",-12.240210269338636],["number",-12.05788871254468],["vec",-12.751035893104628],["urope",-12.240210269338636],["entry",-12.240210269338636],["LL",-13.156501001212792],["Ġste",-12.240210269338636],["Valid",-12.240210269338636],["'],",-12.751035893104628],["_param",-12.05788871254468],["Ġselected",-11.54706308877869],["Ġaccording",-11.451752908974369],["ĠDis",-12.240210269338636],["Ġutil",-12.05788871254468],["Buffer",-12.05788871254468],["_error",-12.05788871254468],["Ġassoci",-11.7702066400929],["_SIZE",-12.240210269338636],["Ġwor",-12.240210269338636],["Ġprintf",-11.7702066400929],["rag",-12.751035893104628],["Âł",-13.156501001212792],["DD",-13.156501001212792],["ĠVal",-12.240210269338636],["Ġactiv",-11.903738032717424],["Eng",-12.751035893104628],["etime",-12.240210269338636],["Ġvirtual",-11.652423604436516],["aign",-12.463353820652848],["aur",-12.751035893104628],["ĠPres",-12.05788871254468],["ĠException",-11.451752908974369],["Ġanything",-11.54706308877869],["ĠOff",-12.240210269338636],["Ġhours",-11.903738032717424],["Ġwar",-12.240210269338636],["Args",-12.463353820652848],["aging",-12.240210269338636],["Ġmodels",-11.7702066400929],["ĠTime",-12.05788871254468],["Ob",-13.156501001212792],["ams",-12.751035893104628],["joy",-12.751035893104628],["Ġearly",-11.903738032717424],[".read",-12.240210269338636],["Ġcenter",-11.7702066400929],["ĠInitial",-11.652423604436516],["Ġlanguage",-11.54706308877869],["length",-12.05788871254468],["xy",-13.156501001212792],["Ġsn",-12.463353820652848],["Ġinf",-12.240210269338636],["Post",-12.463353820652848],["Ġago",-12.240210269338636],["Ġeasy",-12.05788871254468],["_code",-12.240210269338636],["ĠANY",-12.240210269338636],["_ch",-12.751035893104628],["Ġdownload",-11.54706308877869],["(T",-13.156501001212792],["aved",-12.463353820652848],["âĢĵ",-12.751035893104628],["Ġstudents",-11.54706308877869],["Ġfig",-12.240210269338636],["light",-12.240210269338636],["xx",-13.156501001212792],["Ġbuffer",-11.7702066400929],["ĠDep",-12.240210269338636],["ĠMath",-12.05788871254468],["ITH",-12.751035893104628],["Ġvari",-12.05788871254468],["Ġdue",-12.240210269338636],["Factory",-11.903738032717424],["Ġpor",-12.240210269338636],["Ġep",-12.463353820652848],["otype",-12.240210269338636],["Ġcannot",-11.7702066400929],["Ġwhite",-11.903738032717424],["<int",-12.463353820652848],["tern",-12.463353820652848],["Ġregister",-11.54706308877869],["Ġpred",-12.05788871254468],["clus",-12.463353820652848],["_date",-12.240210269338636],["Ġ/**",-12.240210269338636],["Ġauth",-12.05788871254468],["Ġ[]Ċ",-12.240210269338636],["Ġperiod",-11.7702066400929],["nown",-12.463353820652848],["Ġvot",-12.240210269338636],["Ġscreen",-11.7702066400929],["'d",-13.156501001212792],["Types",-12.240210269338636],["Ġtmp",-12.240210269338636],["ÐµÐ",-12.751035893104628],["ural",-12.463353820652848],["Ġbenef",-11.903738032717424],["_y",-13.156501001212792],["Ġnet",-12.240210269338636],["ĠStates",-11.7702066400929],["']['",-12.463353820652848],["ĠNe",-12.463353820652848],["ĠNOT",-12.240210269338636],["Ġneg",-12.240210269338636],["Ġcommon",-11.7702066400929],["scope",-12.240210269338636],["Ġcred",-12.05788871254468],["ges",-12.751035893104628],["_TYPE",-12.240210269338636],["Ġsuggest",-11.652423604436516],["oom",-12.751035893104628],[".ĊĊĊ",-12.463353820652848],["Ġaccept",-11.7702066400929],["Ġrandom",-11.7702066400929],["erm",-12.751035893104628],["ĠVector",-11.7702066400929],["with",-12.463353820652848],["TER",-12.751035893104628],["(str",-12.463353820652848],["Ġrespons",-11.652423604436516],["Ġhit",-12.240210269338636],[".Set",-12.463353820652848],["grid",-12.463353820652848],["ria",-12.751035893104628],["Ġclick",-11.903738032717424],["undle",-12.240210269338636],["Case",-12.463353820652848],["insert",-12.05788871254468],["Utils",-12.240210269338636],["Ġ\"\"\"",-12.240210269338636],["Ġimplement",-11.451752908974369],["atal",-12.463353820652848],["tempt",-12.240210269338636],["template",-11.7702066400929],["ocr",-12.751035893104628],["returns",-11.903738032717424],["Ġplayers",-11.652423604436516],["users",-12.240210269338636],["edef",-12.463353820652848],["ĠThese",-11.903738032717424],["Ġamong",-11.903738032717424],["Ġdeb",-12.240210269338636],["ha",-13.156501001212792],[".getElement",-11.451752908974369],["Ġcirc",-12.05788871254468],["Ġanswer",-11.7702066400929],["Ġwalk",-12.05788871254468],["Ġtreat",-11.903738032717424],["ĠGe",-12.463353820652848],["ĠCreate",-11.7702066400929],["Ġage",-12.240210269338636],["Ġreq",-12.240210269338636],["OST",-12.751035893104628],["angular",-11.903738032717424],["Ñı",-13.156501001212792],["Ġfive",-12.05788871254468],["Ġdistributed",-11.2846988243112],["Ġfriend",-11.7702066400929],["TP",-13.156501001212792],["Ġclean",-11.903738032717424],["ows",-12.751035893104628],[".Controls",-11.652423604436516],["dis",-12.751035893104628],["Ġwords",-11.903738032717424],[".io",-12.751035893104628],["zy",-13.156501001212792],["Ġheader",-11.7702066400929],["ĠCheck",-11.903738032717424],["âĢĻm",-12.463353820652848],["just",-12.463353820652848],["holder",-12.05788871254468],["=\"<?",-12.463353820652848],["ĠGNU",-12.240210269338636],["ĠCol",-12.240210269338636],["imest",-12.240210269338636],["entic",-12.240210269338636],["{ĊĊ",-12.751035893104628],["Ġtre",-12.240210269338636],["last",-12.463353820652848],["la",-13.156501001212792],["ĠYork",-12.05788871254468],["Lo",-13.156501001212792],["Ġdiscuss",-11.652423604436516],["ĠGod",-12.240210269338636],["Ġissue",-11.903738032717424],["rew",-12.751035893104628],["Window",-12.05788871254468],["Ġland",-12.05788871254468],["Ġstream",-11.7702066400929],["ĠPar",-12.240210269338636],["Ġquality",-11.652423604436516],["Par",-12.751035893104628],["_num",-12.463353820652848],["Ġsal",-12.240210269338636],["elves",-12.240210269338636],["ORD",-12.751035893104628],["(user",-12.240210269338636],["Ġworks",-11.903738032717424],["Ġhalf",-12.05788871254468],["enses",-12.240210269338636],["vas",-12.751035893104628],["Ġpolice",-11.7702066400929],["(\"/",-12.751035893104628],["ua",-13.156501001212792],["Ġsimple",-11.7702066400929],["Address",-11.903738032717424],["Ġempty",-11.903738032717424],["esh",-12.751035893104628],["Update",-12.05788871254468],["ĠCreated",-11.652423604436516],["('.",-12.751035893104628],[").Ċ",-12.751035893104628],["ĠĠĠĠĠĠĠĠĠĠĠĠĠĠĠĠĠĠ",-10.266129243316628],["Ġagre",-12.05788871254468],["ĠFROM",-12.05788871254468],["Ġcook",-12.05788871254468],["Ġeverything",-11.364741531984736],["ilities",-11.903738032717424],[".status",-11.903738032717424],["Ġrelations",-11.451752908974369],["extern",-12.05788871254468],["Ġnothing",-11.652423604436516],["Ġrunning",-11.652423604436516],["ĉvoid",-12.240210269338636],["RI",-13.156501001212792],["_a",-13.156501001212792],["_CON",-12.463353820652848],["por",-12.751035893104628],[".sub",-12.463353820652848],["require",-11.903738032717424],["ĠCity",-12.05788871254468],["ĠWest",-12.05788871254468],["Ġmor",-12.240210269338636],["store",-12.240210269338636],["Equals",-12.05788871254468],["oder",-12.463353820652848],["Ġna",-12.463353820652848],["Ġ[[",-12.463353820652848],["Ġ('",-12.463353820652848],["ĠDon",-12.240210269338636],["ERS",-12.751035893104628],["/p",-13.156501001212792],[".json",-12.240210269338636],["abor",-12.463353820652848],["Ġsomeone",-11.652423604436516],["_text",-12.240210269338636],[".css",-12.463353820652848],[".Tab",-12.463353820652848],["ĠSome",-12.05788871254468],["ato",-12.751035893104628],["double",-12.05788871254468],["Ġshare",-11.903738032717424],["(void",-12.240210269338636],["_dir",-12.463353820652848],["Ġur",-12.463353820652848],["Stack",-12.240210269338636],["ĠWorld",-11.903738032717424],[".X",-13.156501001212792],["stract",-12.05788871254468],["How",-12.751035893104628],[".Generic",-11.7702066400929],["icles",-12.240210269338636],["Ġentry",-11.903738032717424],["Ġchanges",-11.652423604436516],["Ġpersonal",-11.54706308877869],["(A",-13.156501001212792],["Ġoffset",-11.7702066400929],["_ptr",-12.463353820652848],["Ġpie",-12.240210269338636],["ĠJan",-12.240210269338636],["-group",-12.05788871254468],["module",-12.05788871254468],["Items",-12.240210269338636],["ĠHowever",-11.652423604436516],["verage",-12.05788871254468],[".Font",-12.240210269338636],["Ġevents",-11.7702066400929],[".min",-12.463353820652848],["Ġinvol",-11.903738032717424],["za",-13.156501001212792],["Ġwhole",-11.903738032717424],["Ġneeded",-11.7702066400929],["Ġlikely",-11.7702066400929],["rief",-12.463353820652848],["ORM",-12.751035893104628],["version",-11.903738032717424],["Ġfight",-11.903738032717424],["Ġein",-12.240210269338636],["Frame",-12.240210269338636],["gen",-12.751035893104628],["ĠOut",-12.240210269338636],["avigation",-11.652423604436516],["Length",-12.05788871254468],["illed",-12.240210269338636],["quence",-12.05788871254468],["Ġ!==",-12.240210269338636],["ĠSoftware",-11.54706308877869],["Ġwriting",-11.652423604436516],["Ġrate",-12.05788871254468],["'],Ċ",-12.463353820652848],["Panel",-12.240210269338636],["inner",-12.240210269338636],["Ġ[\"",-12.463353820652848],["Ġtw",-12.463353820652848],["cd",-13.156501001212792],["Ġ;Ċ",-12.463353820652848],["_state",-12.05788871254468],["ĠSm",-12.463353820652848],["ĠMark",-12.05788871254468],["))ĊĊ",-12.463353820652848],["prot",-12.463353820652848],["ĠMr",-12.463353820652848],["method",-12.05788871254468],["ustomer",-11.903738032717424],["Icon",-12.463353820652848],["Ġcorrect",-11.652423604436516],["(object",-11.903738032717424],["ĠMore",-12.05788871254468],["Ġfall",-12.05788871254468],["Ġvol",-12.240210269338636],["Ġdevelopment",-11.2846988243112],["ently",-12.240210269338636],["Ġsi",-12.463353820652848],["medi",-12.463353820652848],["ving",-12.463353820652848],["PP",-13.156501001212792],["aker",-12.463353820652848],["Ġindu",-12.05788871254468],["Ġelif",-12.05788871254468],["Ġpret",-12.05788871254468],["Ġbelieve",-11.652423604436516],["ns",-13.156501001212792],["omet",-12.463353820652848],["ĠIntern",-11.7702066400929],["Rect",-12.463353820652848],["So",-13.156501001212792],[".error",-12.05788871254468],["Read",-12.463353820652848],["Ġfeatures",-11.54706308877869],["Ġminutes",-11.652423604436516],["---",-12.751035893104628],["asing",-12.240210269338636],["cret",-12.463353820652848],["\">čĊ",-12.463353820652848],[".annot",-12.05788871254468],["Ġcollection",-11.364741531984736],["'.",-13.156501001212792],["Ġsimilar",-11.652423604436516],["Ġtaken",-11.903738032717424],["(\"%",-12.751035893104628],["Order",-12.240210269338636],["']Ċ",-12.751035893104628],["-md",-12.751035893104628],["ĠTH",-12.463353820652848],["aced",-12.463353820652848],["Ġisn",-12.240210269338636],["/j",-13.156501001212792],["Ġson",-12.240210269338636],["graph",-12.240210269338636],["ĠInteger",-11.652423604436516],["Ġnecess",-11.7702066400929],["reen",-12.463353820652848],["Ġum",-12.463353820652848],["Ġ\\<",-12.463353820652848],["Ġmoment",-11.7702066400929],["Ġbring",-11.903738032717424],["Ġindic",-11.903738032717424],["ysis",-12.463353820652848],["Level",-12.240210269338636],["verse",-12.240210269338636],["urrenc",-12.05788871254468],["_test",-12.240210269338636],["Ġentire",-11.7702066400929],["Down",-12.463353820652848],["Ġ}ĊĊĊ",-12.05788871254468],["(result",-11.903738032717424],["ĠRead",-12.05788871254468],["Ã¨",-13.156501001212792],["Mod",-12.751035893104628],["Ġtrying",-11.7702066400929],["\"),Ċ",-12.463353820652848],["Ġmember",-11.7702066400929],["ĠCor",-12.240210269338636],["ODO",-12.751035893104628],["-control",-11.7702066400929],["untime",-12.05788871254468],["ĠSim",-12.240210269338636],["Dialog",-12.05788871254468],["plot",-12.463353820652848],["_on",-12.751035893104628],["Ġphys",-12.05788871254468],["}/",-13.156501001212792],["Ġnamespace",-11.451752908974369],["ĉčĊ",-12.751035893104628],["acc",-12.751035893104628],["Player",-12.05788871254468],["ARE",-12.751035893104628],["Ġfoot",-12.05788871254468],["Ġboard",-11.903738032717424],["part",-12.463353820652848],["Ġsus",-12.240210269338636],["wise",-12.463353820652848],["ĠMc",-12.463353820652848],["Ġpush",-12.05788871254468],["ATA",-12.751035893104628],["Ġplease",-11.7702066400929],["ried",-12.463353820652848],["weet",-12.463353820652848],["bit",-12.751035893104628],["ided",-12.463353820652848],["VE",-13.156501001212792],["ĠSw",-12.463353820652848],["UB",-13.156501001212792],["Ġtypes",-11.903738032717424],["edia",-12.463353820652848],["Ġclos",-12.05788871254468],["acebook",-11.903738032717424],["When",-12.463353820652848],["Ġedit",-12.05788871254468],["igger",-12.240210269338636],["Ġenerg",-11.903738032717424],["Container",-11.652423604436516],["Ġphot",-12.05788871254468],["ĠCount",-11.903738032717424],["ĠEurope",-11.7702066400929],[".Is",-12.751035893104628],["ĠRuss",-12.05788871254468],["peed",-12.463353820652848],["ĠStr",-12.240210269338636],["Ġpy",-12.463353820652848],["Ġcult",-12.05788871254468],["Ġdefined",-11.652423604436516],["ccount",-12.05788871254468],["Ġobt",-12.240210269338636],[".Location",-11.652423604436516],["Ġthread",-11.7702066400929],["ille",-12.463353820652848],["Ġinstead",-11.652423604436516],["strong",-12.05788871254468],["ĠSec",-12.240210269338636],["URE",-12.751035893104628],["Ġidea",-12.05788871254468],[".se",-12.751035893104628],["emy",-12.751035893104628],["selected",-11.7702066400929],["Connection",-11.54706308877869],["acing",-12.240210269338636],["thread",-12.05788871254468],[".next",-12.240210269338636],["Ġcoll",-12.05788871254468],["Ġfilm",-12.05788871254468],["istic",-12.240210269338636],["Ġcompet",-11.7702066400929],["Ġconn",-12.05788871254468],["though",-12.05788871254468],["Ġcompan",-11.7702066400929],["ocket",-12.240210269338636],["Ġteach",-11.903738032717424],["=(",-13.156501001212792],["Ġphone",-11.903738032717424],["Ġactive",-11.7702066400929],["delete",-12.05788871254468],["tries",-12.240210269338636],["Ġmo",-12.463353820652848],["Ġdeath",-11.903738032717424],["});ĊĊ",-12.240210269338636],["ocol",-12.463353820652848],["Widget",-12.05788871254468],["Ġarticle",-11.652423604436516],["rodu",-12.463353820652848],["andid",-12.240210269338636],["Ñĭ",-13.156501001212792],["ĠCr",-12.463353820652848],["ka",-13.156501001212792],["():",-12.751035893104628],["lood",-12.463353820652848],["ĉĉĉĊ",-12.463353820652848],["Ġalmost",-11.7702066400929],["Ġsell",-12.05788871254468],["ervlet",-12.05788871254468],["rip",-12.751035893104628],["Unit",-12.463353820652848],["Ġapplic",-11.7702066400929],["Ġconnect",-11.652423604436516],["Ġfeature",-11.652423604436516],["Ġvia",-12.240210269338636],["'),",-12.751035893104628],["Ġlim",-12.240210269338636],["ĠĠĠĠĠĠĠĠĠĠĠĠĠĠĠĠĠĠĠĠĠĠĠĠĠĠĠĠĠĠĠĠĠĠĠĠĠĠĠĠĠĠĠĠĠĠĠ",-9.306353399502733],["ĠGu",-12.463353820652848],["Engine",-12.05788871254468],["Ġens",-12.240210269338636],["Ġenvironment",-11.2846988243112],["block",-12.240210269338636],["HERE",-12.463353820652848],["NULL",-12.463353820652848],["gy",-13.156501001212792],["tag",-12.751035893104628],[")).",-12.751035893104628],["exp",-12.751035893104628],["Ġcompl",-11.903738032717424],["Ġinstall",-11.652423604436516],["Ġcomplete",-11.54706308877869],["queue",-12.240210269338636],["atural",-12.05788871254468],["Ġgeneral",-11.652423604436516],["thon",-12.463353820652848],["Ġasked",-11.903738032717424],["ores",-12.463353820652848],["(res",-12.463353820652848],["Ġreserved",-11.54706308877869],["SP",-13.156501001212792],["ĠâĢ¦",-12.240210269338636],["ÅĤ",-13.156501001212792],["Ġsignific",-11.54706308877869],["Off",-12.751035893104628],["ĠĠĠĠĠĠĠĠĠĠĠĠĠĠĠĠĠĠĠĠĠĠĠĠĠĠĠĠĠ",-9.789205171226318],["ĠAg",-12.463353820652848],["ĠJust",-12.05788871254468],["ĠError",-11.903738032717424],["Ġinfl",-12.05788871254468],["adata",-12.240210269338636],["Ġicon",-12.05788871254468],["asks",-12.463353820652848],["''",-13.156501001212792],["_LO",-12.751035893104628],["?.",-13.156501001212792],["account",-11.903738032717424],["Ġ(*",-12.463353820652848],["')ĊĊ",-12.463353820652848],["rap",-12.751035893104628],["_var",-12.463353820652848],["ĠFOR",-12.240210269338636],["Ġparty",-11.903738032717424],["ĠYour",-12.05788871254468],["cat",-12.751035893104628],["stry",-12.463353820652848],[".new",-12.463353820652848],["boot",-12.463353820652848],["ĠNov",-12.240210269338636],["Ġvector",-11.7702066400929],["Ġnormal",-11.7702066400929],["Ġfurther",-11.652423604436516],["Repository",-11.54706308877869],["Ġdatabase",-11.54706308877869],["attle",-12.240210269338636],["Ġmusic",-11.903738032717424],["Ġspeed",-11.903738032717424],["Ġdoc",-12.240210269338636],["process",-11.903738032717424],["IGHT",-12.463353820652848],[".parse",-12.05788871254468],["Ġtaking",-11.7702066400929],["Ġviol",-12.05788871254468],["ceed",-12.463353820652848],["ĠAfter",-11.903738032717424],["Ġforward",-11.652423604436516],["Ġcrit",-12.05788871254468],["\"/>Ċ",-12.463353820652848],["rot",-12.751035893104628],["Ġfailed",-11.7702066400929],["efore",-12.240210269338636],["Ġconcern",-11.652423604436516],["oe",-13.156501001212792],["ba",-13.156501001212792],["Ġsender",-11.7702066400929],["Ġterm",-12.05788871254468],["has",-12.751035893104628],["=\"#",-12.751035893104628],["Ġpotential",-11.451752908974369],["Num",-12.751035893104628],["Ġpublished",-11.451752908974369],[".close",-12.05788871254468],["ĠImage",-11.903738032717424],["straint",-11.903738032717424],["UD",-13.156501001212792],["ĠOb",-12.463353820652848],["Ġprobably",-11.54706308877869],["lim",-12.751035893104628],["\":Ċ",-12.751035893104628],["olume",-12.240210269338636],["Ġconsum",-11.7702066400929],["ague",-12.463353820652848],["ensions",-11.903738032717424],["Ġinvestig",-11.54706308877869],["-year",-12.240210269338636],["');",-12.751035893104628],["-sm",-12.751035893104628],["Ġenjoy",-11.903738032717424],["orig",-12.463353820652848],["ering",-12.240210269338636],["cp",-13.156501001212792],["leased",-12.05788871254468],["plements",-11.7702066400929],["Ġreturns",-11.652423604436516],["pat",-12.751035893104628],["BO",-13.156501001212792],["ĠHouse",-11.903738032717424],[".Label",-12.05788871254468],["Ġweight",-11.7702066400929],["ighb",-12.463353820652848],["Ġconditions",-11.364741531984736],["Ġexception",-11.451752908974369],["description",-11.451752908974369],["Ġtrad",-12.05788871254468],["-to",-12.751035893104628],["Ġ{}",-12.463353820652848],["Ġmodule",-11.7702066400929],["END",-12.751035893104628],[".ap",-12.751035893104628],[".props",-12.05788871254468],["Ġconstructor",-11.2846988243112],["aves",-12.463353820652848],["Ġfavor",-11.903738032717424],["ĠNow",-12.240210269338636],[";i",-13.156501001212792],["ĠMain",-12.05788871254468],["_k",-13.156501001212792],["eries",-12.240210269338636],["âĢĻll",-12.240210269338636],["transform",-11.652423604436516],["imestamp",-11.7702066400929],["Pre",-12.751035893104628],["Ġmer",-12.240210269338636],[".res",-12.463353820652848],["stant",-12.240210269338636],["Location",-11.7702066400929],["_NAME",-12.240210269338636],["Ġloss",-12.05788871254468],["ĠĊĊ",-12.463353820652848],["net",-12.751035893104628],["Ġengine",-11.7702066400929],["Block",-12.240210269338636],["Ġissues",-11.7702066400929],["Ġparse",-11.903738032717424],["ĠBar",-12.240210269338636],["Ġstay",-12.05788871254468],["ĠJSON",-12.05788871254468],["Ġdom",-12.240210269338636],["airs",-12.463353820652848],["wner",-12.463353820652848],["Ġlower",-11.903738032717424],["\",čĊ",-12.463353820652848],["ĠDem",-12.240210269338636],["ufact",-12.240210269338636],["Ġps",-12.463353820652848],["Ġperfect",-11.652423604436516],["RL",-13.156501001212792],["Ġeduc",-12.05788871254468],["ls",-13.156501001212792],["emory",-12.240210269338636],["ARRANT",-12.05788871254468],["uge",-12.751035893104628],["Ġexact",-11.903738032717424],[".key",-12.463353820652848],["alled",-12.240210269338636],["ech",-12.751035893104628],["ief",-12.751035893104628],["\\/",-13.156501001212792],["oke",-12.751035893104628],["Ġformer",-11.7702066400929],["alloc",-12.240210269338636],["Ġsix",-12.240210269338636],["ida",-12.751035893104628],["Ġmargin",-11.7702066400929],["Ġheart",-11.903738032717424],["ald",-12.751035893104628],["pack",-12.463353820652848],[".getElementById",-11.141597980670529],["ĠWARRANT",-11.652423604436516],["Ġrather",-11.7702066400929],["Ġbuilding",-11.54706308877869],["erman",-12.240210269338636],["lice",-12.463353820652848],["Ġquestions",-11.451752908974369],["izes",-12.463353820652848],["lege",-12.463353820652848],["irectory",-11.7702066400929],["Ġje",-12.463353820652848],["Ġcas",-12.240210269338636],["props",-12.240210269338636],["utf",-12.751035893104628],["Ġsecurity",-11.54706308877869],["Ġhowever",-11.652423604436516],["weight",-12.05788871254468],["Ġinside",-11.7702066400929],["Ġpresident",-11.451752908974369],["Char",-12.463353820652848],["ĠWITH",-12.05788871254468],[".map",-12.463353820652848],["Ġgraph",-11.903738032717424],["Ġtag",-12.240210269338636],["_status",-11.903738032717424],["Ġattempt",-11.652423604436516],["opp",-12.751035893104628],["uses",-12.463353820652848],["ĉconst",-12.05788871254468],["Ġround",-11.903738032717424],[",$",-13.156501001212792],["Ġfriends",-11.652423604436516],["Email",-12.240210269338636],["?>",-13.156501001212792],["Resource",-11.7702066400929],["KEY",-12.751035893104628],["osp",-12.751035893104628],[".query",-12.05788871254468],["ĠNorth",-11.903738032717424],["ables",-12.240210269338636],["istrib",-12.05788871254468],["_class",-12.05788871254468],["ello",-12.463353820652848],["That",-12.463353820652848],["Ðº",-13.156501001212792],["pecially",-11.7702066400929],["ĠPresident",-11.451752908974369],["Ġcampaign",-11.54706308877869],["Ġalt",-12.240210269338636],["area",-12.463353820652848],["Ġchall",-11.903738032717424],["Ġopport",-11.7702066400929],[".Con",-12.463353820652848],["Ġenergy",-11.7702066400929],["like",-12.463353820652848],[".string",-11.903738032717424],["ington",-12.05788871254468],[")*",-13.156501001212792],["yy",-13.156501001212792],["Ġprofession",-11.364741531984736],["irth",-12.463353820652848],["Ġseg",-12.240210269338636],["æľ",-13.156501001212792],["Ġhor",-12.240210269338636],["iers",-12.463353820652848],["can",-12.751035893104628],["Ġbehind",-11.7702066400929],["Product",-11.903738032717424],["fg",-13.156501001212792],["ĠSk",-12.463353820652848],[".jpg",-12.463353820652848],["?:",-13.156501001212792],["];ĊĊ",-12.463353820652848],["Ġcallback",-11.54706308877869],["ĠHttp",-12.05788871254468],["ÑĮ",-13.156501001212792],["long",-12.463353820652848],["MS",-13.156501001212792],["ATH",-12.751035893104628],["Ġraise",-11.903738032717424],["Ġwanted",-11.7702066400929],["rown",-12.463353820652848],["utor",-12.463353820652848],["lt",-13.156501001212792],["]=",-13.156501001212792],["eline",-12.240210269338636],["MA",-13.156501001212792],["Ġsepar",-11.903738032717424],["cs",-13.156501001212792],["semb",-12.463353820652848],["Dis",-12.751035893104628],["bserv",-12.240210269338636],["ĠWill",-12.05788871254468],["Ġpolicy",-11.7702066400929],["Ġthird",-11.903738032717424],["phone",-12.240210269338636],["Ġbed",-12.240210269338636],["/g",-13.156501001212792],[".__",-12.751035893104628],["ĠInc",-12.240210269338636],["izing",-12.240210269338636],[".remove",-11.903738032717424],["instance",-11.7702066400929],[".type",-12.240210269338636],["Ġserv",-12.05788871254468],["Each",-12.463353820652848],["Ġhar",-12.240210269338636],["ĠMessage",-11.652423604436516],["(key",-12.463353820652848],["SELECT",-12.05788871254468],["Pos",-12.751035893104628],["));čĊ",-12.240210269338636],["Ġrecomm",-11.7702066400929],["Ġtraining",-11.54706308877869],["ĠEnt",-12.240210269338636],["ĠChar",-12.05788871254468],["icht",-12.463353820652848],["(file",-12.240210269338636],["Ġprior",-11.903738032717424],["Game",-12.463353820652848],["Ġexit",-12.05788871254468],["Params",-12.05788871254468],[".core",-12.240210269338636],["PC",-13.156501001212792],["nes",-12.751035893104628],["anced",-12.240210269338636],["(request",-11.7702066400929],["Password",-11.7702066400929],["}>Ċ",-12.751035893104628],["Ġmag",-12.240210269338636],["Ġrelease",-11.652423604436516],["Ġshall",-11.903738032717424],["udent",-12.240210269338636],["ĠSouth",-11.903738032717424],["ando",-12.463353820652848],[":'",-13.156501001212792],[".TabIndex",-11.652423604436516],["sk",-13.156501001212792],["anner",-12.240210269338636],["isset",-12.240210269338636],["Ġoutside",-11.652423604436516],["ledge",-12.240210269338636],["Ġå",-12.751035893104628],["ĠRob",-12.240210269338636],["Ġimm",-12.240210269338636],["!Ċ",-13.156501001212792],["ĠWeb",-12.240210269338636],["Des",-12.751035893104628],["BC",-13.156501001212792],["ancial",-12.05788871254468],["Route",-12.240210269338636],["Dec",-12.751035893104628],["ferences",-11.7702066400929],["Ġpurch",-11.903738032717424],["ĠModel",-11.903738032717424],["ctor",-12.463353820652848],["gn",-13.156501001212792],["_start",-12.05788871254468],["_un",-12.751035893104628],[".*",-13.156501001212792],["ises",-12.463353820652848],["Ġground",-11.7702066400929],["Ġunique",-11.7702066400929],["Ġbeaut",-11.903738032717424],["{\"",-13.156501001212792],["Ġpour",-12.05788871254468],["ĠOct",-12.240210269338636],["Ġtree",-12.05788871254468],["sets",-12.463353820652848],["_res",-12.463353820652848],["')->",-12.463353820652848],["_reg",-12.463353820652848],["(\"\\",-12.751035893104628],["Ġbyte",-12.05788871254468],["Bl",-13.156501001212792],["Ġdating",-11.7702066400929],["Ġmatter",-11.7702066400929],["ĠRem",-12.240210269338636],["Ġ'../",-12.05788871254468],["ĠAug",-12.240210269338636],["ĠLa",-12.463353820652848],["Ġ$(",-12.463353820652848],["ournal",-12.05788871254468],["iam",-12.751035893104628],["Ġshows",-11.903738032717424],["write",-12.240210269338636],["Ġball",-12.05788871254468],["Ġsimply",-11.7702066400929],["Ġfast",-12.05788871254468],["Ġmemory",-11.7702066400929],["ASS",-12.751035893104628],["ĠOf",-12.463353820652848],["oved",-12.463353820652848],["ante",-12.463353820652848],["aul",-12.751035893104628],["istry",-12.240210269338636],[")));Ċ",-12.240210269338636],["Ġfit",-12.240210269338636],["<string",-11.903738032717424],["Ġpolitical",-11.451752908974369],["ancel",-12.240210269338636],["_.",-13.156501001212792],["card",-12.463353820652848],[".current",-11.7702066400929],["och",-12.751035893104628],["_image",-12.05788871254468],["\\t",-13.156501001212792],["#Ċ",-13.156501001212792],["(L",-13.156501001212792],["Ġindustry",-11.54706308877869],["coming",-12.05788871254468],["Ġextra",-11.903738032717424],["Ġreported",-11.54706308877869],[".start",-12.05788871254468],["Ġresources",-11.451752908974369],["Ġimg",-12.240210269338636],["flow",-12.463353820652848],["_EX",-12.751035893104628],["(null",-12.240210269338636],["ĠPre",-12.240210269338636],["Ġwrong",-11.903738032717424],["interface",-11.652423604436516],["Parameter",-11.652423604436516],["ners",-12.463353820652848],["á»",-13.156501001212792],["ture",-12.463353820652848],["ersist",-12.05788871254468],["ountry",-12.05788871254468],["Ġseems",-11.903738032717424],["alance",-12.05788871254468],["dest",-12.463353820652848],["ĉString",-11.903738032717424],["Ġmaint",-11.903738032717424],["Ġunit",-12.05788871254468],["acters",-12.05788871254468],["ĠTR",-12.463353820652848],["iful",-12.463353820652848],["exports",-11.903738032717424],["project",-11.903738032717424],["Application",-11.451752908974369],["legate",-12.05788871254468],["Ġtakes",-11.903738032717424],["term",-12.463353820652848],["Ġetc",-12.240210269338636],["uster",-12.240210269338636],["Ġappear",-11.7702066400929],["address",-11.903738032717424],["Ġfem",-12.240210269338636],["hs",-13.156501001212792],["Ġhom",-12.240210269338636],[",-",-13.156501001212792],["Ġdifficult",-11.451752908974369],["Ġcoming",-11.7702066400929],["Open",-12.463353820652848],["Ġsettings",-11.54706308877869],["ĠWar",-12.240210269338636],["ĠThen",-12.05788871254468],["Ġautom",-11.903738032717424],["ĠFoundation",-11.364741531984736],["Ġquite",-11.903738032717424],["Description",-11.451752908974369],["Ġblog",-12.05788871254468],["iqu",-12.751035893104628],["PS",-13.156501001212792],["_field",-12.05788871254468],["Json",-12.463353820652848],["SSION",-12.240210269338636],["ĠSch",-12.240210269338636],["ĠLO",-12.463353820652848],["Ġdescri",-11.7702066400929],["Ġeveryone",-11.54706308877869],["Ġpretty",-11.7702066400929],["Ġlonger",-11.7702066400929],["Ġmenu",-12.05788871254468],["Ġcurrently",-11.451752908974369],["sec",-12.751035893104628],["Ġrelationship",-11.21059085215748],["################################",-10.38391227897301],["ĠMap",-12.240210269338636],["aset",-12.463353820652848],["Ġparameters",-11.364741531984736],["Ġcrush",-11.903738032717424],["\"čĊ",-12.751035893104628],["ILITY",-12.240210269338636],["igration",-11.7702066400929],["Ġcout",-12.05788871254468],["total",-12.240210269338636],["Ġnames",-11.903738032717424],["ndef",-12.463353820652848],["\");",-12.751035893104628],["riend",-12.240210269338636],["ynamic",-12.05788871254468],["Ġeffort",-11.7702066400929],["Ġactual",-11.7702066400929],["Ġfields",-11.7702066400929],["OUN",-12.751035893104628],["ters",-12.463353820652848],["Ġfix",-12.240210269338636],["_model",-12.05788871254468],["Ġcases",-11.903738032717424],["CA",-13.156501001212792],["My",-13.156501001212792],["Interface",-11.652423604436516],["ĠSE",-12.463353820652848],["]]",-13.156501001212792],["alle",-12.463353820652848],["ĠNational",-11.54706308877869],["ĠArrayList",-11.451752908974369],["inline",-12.05788871254468],[".V",-13.156501001212792],["ara",-12.751035893104628],["refix",-12.240210269338636],["asc",-12.751035893104628],["Reader",-12.05788871254468],["ĠÐ¿",-12.463353820652848],["astic",-12.240210269338636],["(()",-12.751035893104628],["Cl",-13.156501001212792],[".annotation",-11.451752908974369],["Ġperformance",-11.2846988243112],["aily",-12.463353820652848],[".toString",-11.652423604436516],[".net",-12.463353820652848],["views",-12.240210269338636],[".end",-12.463353820652848],["ayers",-12.240210269338636],["late",-12.463353820652848],["ĠApr",-12.240210269338636],["ederal",-12.05788871254468],["'])",-12.751035893104628],[".body",-12.240210269338636],["Ġhigher",-11.7702066400929],["_fl",-12.751035893104628],["cr",-13.156501001212792],["alert",-12.240210269338636],["_node",-12.240210269338636],["ĠGoogle",-11.7702066400929],["Ġitself",-11.7702066400929],["Auth",-12.463353820652848],["urrency",-11.903738032717424],["Ġsignificant",-11.2846988243112],["append",-12.05788871254468],["Ġrespect",-11.652423604436516],["strap",-12.240210269338636],["Ġuna",-12.240210269338636],["riteria",-11.903738032717424],["PORT",-12.463353820652848],[".apache",-11.903738032717424],["Output",-12.05788871254468],["Ġprogress",-11.54706308877869],["Ġmid",-12.240210269338636],["ĠMicrosoft",-11.451752908974369],["Ġresource",-11.54706308877869],["ablish",-12.05788871254468],["Ġdim",-12.240210269338636],[".load",-12.240210269338636],[".App",-12.463353820652848],["Ġdirection",-11.451752908974369],["Ġadditional",-11.364741531984736],["ĠĠĠĠĠĠĠĠĠĠĠĠĠĠĠĠĠĠĠĠĠĠĠĠ",-9.978447170864843],["Ġnumbers",-11.652423604436516],["Ġcompanies",-11.451752908974369],[".Th",-12.751035893104628],["Ġsound",-11.903738032717424],["username",-11.7702066400929],["Ġstatement",-11.451752908974369],["Ġalert",-11.903738032717424],["Ġcontract",-11.54706308877869],["home",-12.463353820652848],["_length",-11.903738032717424],[".Component",-11.54706308877869],["ev",-13.156501001212792],[".Ex",-12.751035893104628],["ï¼ļ",-12.751035893104628],["\";",-13.156501001212792],["ĠHigh",-12.05788871254468],["Ġ)ĊĊ",-12.240210269338636],["ĠPoint",-11.903738032717424],["oph",-12.751035893104628],["Ġlines",-11.903738032717424],["->_",-12.751035893104628],["\")ĊĊ",-12.463353820652848],["ox",-13.156501001212792],["application",-11.451752908974369],["Ġ]Ċ",-12.463353820652848],["ĊĊĊĊĊĊ",-12.05788871254468],["Ġsoon",-12.05788871254468],["ctions",-12.05788871254468],["inger",-12.240210269338636],["Ġjoin",-12.05788871254468],["ĠPe",-12.463353820652848],["Ġë",-12.751035893104628],["Ġlas",-12.240210269338636],[".E",-13.156501001212792],["css",-12.751035893104628],["/or",-12.751035893104628],["ĠStart",-11.903738032717424],["ĠTO",-12.463353820652848],["Ġsubs",-12.05788871254468],["conn",-12.463353820652848],["components",-11.54706308877869],["DEBUG",-12.240210269338636],["quare",-12.240210269338636],["Function",-11.7702066400929],["endar",-12.240210269338636],[".index",-12.05788871254468],["Ġfill",-12.05788871254468],["ÄĻ",-13.156501001212792],["Ġchoose",-11.7702066400929],["how",-12.751035893104628],["ĠAmerica",-11.652423604436516],["assets",-12.05788871254468],["------------",-11.364741531984736],["ĠValue",-11.903738032717424],["Ġoffice",-11.7702066400929],["Ġveh",-12.240210269338636],["Ġtransform",-11.451752908974369],["ĠArt",-12.240210269338636],["Ġinde",-12.05788871254468],["Ġfn",-12.463353820652848],["Ġimplements",-11.364741531984736],["ango",-12.463353820652848],["plete",-12.240210269338636],["+\"",-13.156501001212792],["tmp",-12.751035893104628],["amily",-12.240210269338636],["Ġhash",-12.05788871254468],["missions",-11.7702066400929],["EST",-12.751035893104628],["gt",-13.156501001212792],["Provider",-11.7702066400929],["ĠĠĠĠĠĠĠĠĠĠĠĠĠĠĠĠĠĠĠĠĠĠ",-10.065458547854476],["Ġflag",-12.05788871254468],["Ġparticip",-11.54706308877869],["den",-12.751035893104628],["ĠReturns",-11.652423604436516],["Ġnote",-12.05788871254468],["Ã¼r",-12.751035893104628],["pm",-13.156501001212792],["ideos",-12.240210269338636],["Ġspecified",-11.451752908974369],["ĠEN",-12.463353820652848],["ester",-12.240210269338636],["olid",-12.463353820652848],["Ġupon",-12.05788871254468],["(std",-12.463353820652848],["ĉv",-13.156501001212792],["Ġ'\\",-12.463353820652848],["uz",-13.156501001212792],["Ġvert",-12.05788871254468],["Ġvict",-12.05788871254468],["ĉself",-12.240210269338636],["Ġ\"$",-12.463353820652848],[".k",-13.156501001212792],["Ġgroups",-11.7702066400929],["github",-12.05788871254468],["lang",-12.463353820652848],["Ġmut",-12.240210269338636],["TO",-13.156501001212792],["Ġve",-12.463353820652848],["ĠPlease",-11.7702066400929],[";ĊĊĊ",-12.463353820652848],["access",-12.05788871254468],["Ġ{\"",-12.463353820652848],["rea",-12.751035893104628],["Ġrisk",-12.05788871254468],["icker",-12.240210269338636],["oggle",-12.240210269338636],["ĉwhile",-12.05788871254468],["ANG",-12.751035893104628],[".send",-12.240210269338636],["Ġwoman",-11.903738032717424],["Ġgets",-12.05788871254468],["Ġign",-12.240210269338636],["ĠId",-12.463353820652848],["_log",-12.463353820652848],["ONE",-12.751035893104628],["Ġevid",-12.05788871254468],["ĠHar",-12.240210269338636],["_sub",-12.463353820652848],["Ġendl",-12.05788871254468],["Ġincluded",-11.54706308877869],["());ĊĊ",-12.05788871254468],["ĠAp",-12.463353820652848],["igr",-12.751035893104628],["Ġsem",-12.240210269338636],["ĠBlack",-11.903738032717424],["doc",-12.751035893104628],["_table",-12.05788871254468],["ĠĠĠĠĠĠĠĠĠĠĠĠĠĠĠĠĠĠĠĠĠĠĠĠĠĠĠĠĠĠĠĠĠĠĠĠĠĠĠĠĠĠĠĠĠĠĠĠĠĠĠĠĠĠĠĠĠĠĠĠĠĠĠĠ",-8.99761791785312],["-up",-12.751035893104628],["Ġcause",-11.903738032717424],["Ġ..",-12.463353820652848],["Ġvan",-12.240210269338636],["_dict",-12.240210269338636],["Ġfocus",-11.903738032717424],["IND",-12.751035893104628],["CESS",-12.463353820652848],[".Log",-12.463353820652848],["Ġmultiple",-11.54706308877869],["ido",-12.751035893104628],["Ġregard",-11.7702066400929],["-M",-13.156501001212792],["andler",-12.05788871254468],["ourse",-12.240210269338636],["Ġdeg",-12.240210269338636],[".U",-13.156501001212792],["Ġaddition",-11.54706308877869],["Ġvarious",-11.652423604436516],["Ġreceive",-11.652423604436516],["ÐµÐ½",-12.463353820652848],["ĠHT",-12.463353820652848],["Obj",-12.751035893104628],["DF",-13.156501001212792],["Ġincrease",-11.54706308877869],["ĠOpen",-12.05788871254468],["];",-13.156501001212792],["Ġcommit",-11.7702066400929],["?Ċ",-13.156501001212792],["ategories",-11.652423604436516],["atory",-12.240210269338636],["ship",-12.463353820652848],["ĠMich",-12.05788871254468],["Ġhtml",-12.05788871254468],["romise",-12.05788871254468],["Ġleave",-11.903738032717424],["Ġstrateg",-11.652423604436516],["aven",-12.463353820652848],["ĠConsole",-11.652423604436516],["known",-12.240210269338636],["-n",-13.156501001212792],["_LE",-12.751035893104628],[".component",-11.54706308877869],["Ġbre",-12.240210269338636],["Session",-11.903738032717424],["iance",-12.240210269338636],["Ġalign",-11.903738032717424],["typedef",-11.903738032717424],["_result",-11.903738032717424],["ĠWHERE",-11.903738032717424],[".split",-12.05788871254468],["Ġreading",-11.652423604436516],["FAULT",-12.240210269338636],["Ġclo",-12.240210269338636],["Ġnotice",-11.7702066400929],["_pr",-12.751035893104628],["arter",-12.240210269338636],["Ġlock",-12.05788871254468],["Ġstandard",-11.54706308877869],["etic",-12.463353820652848],["ellow",-12.240210269338636],["Ġpadding",-11.652423604436516],["ĠHis",-12.240210269338636],["Ġstates",-11.7702066400929],["_cast",-12.240210269338636],["(P",-13.156501001212792],["aa",-13.156501001212792],["Ġinternal",-11.54706308877869],["ean",-12.751035893104628],["ĠPRO",-12.240210269338636],["ĠKey",-12.240210269338636],["Ġespecially",-11.364741531984736],["ming",-12.463353820652848],["Ġcross",-11.903738032717424],["Ġnational",-11.54706308877869],["_object",-11.903738032717424],["filter",-12.05788871254468],["Ġscript",-11.7702066400929],[".update",-11.903738032717424],["_i",-13.156501001212792],["ĠAssert",-11.7702066400929],["/core",-12.240210269338636],["%%%%",-12.463353820652848],["Ġproblems",-11.54706308877869],["istor",-12.240210269338636],["Ġ.=",-12.463353820652848],["Ġarch",-12.05788871254468],["Ġwritten",-11.652423604436516],["Ġmilit",-11.903738032717424],["MENT",-12.463353820652848],[".ch",-12.751035893104628],["cape",-12.463353820652848],["ĠMus",-12.240210269338636],["_config",-11.903738032717424],["ĠAPI",-12.240210269338636],["foot",-12.463353820652848],["Ġimages",-11.7702066400929],["endl",-12.463353820652848],[".In",-12.751035893104628],["First",-12.240210269338636],["Ġplatform",-11.54706308877869],[".prot",-12.240210269338636],["Option",-12.05788871254468],["ste",-12.751035893104628],["ĠTODO",-12.05788871254468],["Ġforce",-11.903738032717424],[".cont",-12.240210269338636],["ĉecho",-12.240210269338636],["ĠDav",-12.240210269338636],["Ptr",-12.751035893104628],["(B",-13.156501001212792],["RT",-13.156501001212792],["ĠBase",-12.05788871254468],["]['",-12.751035893104628],["Ġannounc",-11.652423604436516],["console",-11.903738032717424],["ĠPy",-12.463353820652848],["ds",-13.156501001212792],[".as",-12.751035893104628],["Ġprevent",-11.652423604436516],["apan",-12.463353820652848],["Ġ{'",-12.463353820652848],["}</",-12.751035893104628],["ĠService",-11.652423604436516],["ĠSen",-12.240210269338636],["ador",-12.463353820652848],["profile",-11.903738032717424],["Top",-12.751035893104628],["Ġiter",-12.05788871254468],["po",-13.156501001212792],["IES",-12.751035893104628],["JSON",-12.463353820652848],["IE",-13.156501001212792],["iant",-12.463353820652848],["ãĢģ",-12.751035893104628],["_j",-13.156501001212792],["ĠSept",-12.05788871254468],["_map",-12.463353820652848],["bum",-12.751035893104628],["(context",-11.7702066400929],["ĠHome",-12.05788871254468],["ians",-12.463353820652848],["GB",-13.156501001212792],["Ġliving",-11.7702066400929],["Ġpattern",-11.652423604436516],["(input",-12.05788871254468],["icient",-12.05788871254468],["Core",-12.463353820652848],["Ġentity",-11.7702066400929],["Ġinteg",-11.903738032717424],["Changed",-11.903738032717424],["Ġuseful",-11.7702066400929],[".info",-12.240210269338636],["Ġtool",-12.05788871254468],["(item",-12.240210269338636],["Ġok",-12.463353820652848],["Ġfeed",-12.05788871254468],["IX",-13.156501001212792],["Ã©s",-12.751035893104628],["ĠNews",-12.05788871254468],["remove",-12.05788871254468],["erry",-12.463353820652848],["ĉĉĉĉĉĉĉĉĉ",-11.652423604436516],["ipment",-12.05788871254468],["ares",-12.463353820652848],["Do",-13.156501001212792],["Current",-11.903738032717424],[".content",-11.7702066400929],[".Group",-12.05788871254468],["ustral",-12.05788871254468],["ĠÑģ",-12.463353820652848],["})",-13.156501001212792],["Ġpopular",-11.652423604436516],["Ġstre",-12.05788871254468],["Ġmethods",-11.652423604436516],["_ERROR",-12.05788871254468],["Left",-12.463353820652848],["cal",-12.751035893104628],["bsp",-12.751035893104628],[".ToString",-11.652423604436516],["Ġdir",-12.240210269338636],["Ġallowed",-11.652423604436516],["Ġimpact",-11.7702066400929],["\")]Ċ",-12.463353820652848],[".config",-11.903738032717424],["Ġelements",-11.54706308877869],["Ġprote",-11.903738032717424],["Ġtrain",-11.903738032717424],[".tr",-12.751035893104628],["rs",-13.156501001212792],["ĠRepublic",-11.54706308877869],["ĠTask",-12.05788871254468],["aries",-12.240210269338636],["(D",-13.156501001212792],["(get",-12.463353820652848],["âĢ¦ĊĊ",-12.240210269338636],["Ġrelated",-11.652423604436516],["Ġvers",-12.05788871254468],["Ġsil",-12.240210269338636],["Ġ\"\";Ċ",-12.05788871254468],["Ġcmd",-12.240210269338636],["Ġtechnology",-11.364741531984736],[".width",-12.05788871254468],["Float",-12.240210269338636],["ĠUse",-12.240210269338636],["Body",-12.463353820652848],["should",-12.05788871254468],[".join",-12.240210269338636],["Font",-12.463353820652848],["llum",-12.463353820652848],["ycle",-12.463353820652848],["ĠBrit",-12.05788871254468],["Ġmit",-12.240210269338636],["Ġscale",-11.903738032717424],["Ġ(_",-12.463353820652848],["ernel",-12.240210269338636],["\"))Ċ",-12.463353820652848],["Ġscore",-11.903738032717424],["/v",-13.156501001212792],["Ġstudent",-11.652423604436516],["UC",-13.156501001212792],[".show",-12.240210269338636],["Ġaverage",-11.652423604436516],["Enabled",-11.903738032717424],["(ex",-12.751035893104628],["common",-12.05788871254468],["imation",-11.903738032717424],[":@\"",-12.751035893104628],["chie",-12.463353820652848],["Ġ...ĊĊ",-11.903738032717424],["river",-12.240210269338636],["ĠMarch",-11.903738032717424],["category",-11.7702066400929],["fin",-12.751035893104628],["Ġcourt",-11.903738032717424],["Ð²",-13.156501001212792],["Server",-12.05788871254468],["Ġcontainer",-11.451752908974369],["-st",-12.751035893104628],["_for",-12.463353820652848],["Ġparts",-11.903738032717424],["Ġdecision",-11.54706308877869],["obs",-12.751035893104628],["oub",-12.751035893104628],["mitted",-12.05788871254468],["Ġ$('#",-12.05788871254468],["Ġsaw",-12.240210269338636],["Ġapproach",-11.54706308877869],["ICE",-12.751035893104628],["Ġsaying",-11.7702066400929],["Ġanyone",-11.7702066400929],["meta",-12.463353820652848],["SD",-13.156501001212792],["Ġsong",-12.05788871254468],["display",-11.903738032717424],["Oper",-12.463353820652848],["outes",-12.240210269338636],["Ġchannel",-11.652423604436516],["Ġchanged",-11.652423604436516],["Ãª",-13.156501001212792],["Ġfinally",-11.652423604436516],["_number",-11.903738032717424],["Please",-12.05788871254468],["à¤",-13.156501001212792],["oring",-12.240210269338636],["-re",-12.751035893104628],["Ġkill",-12.05788871254468],["Ġdrug",-12.05788871254468],["window",-12.05788871254468],["Ġconvert",-11.652423604436516],["ombre",-12.240210269338636],["Ġways",-12.05788871254468],["Helper",-12.05788871254468],["ĠFirst",-11.903738032717424],["(__",-12.751035893104628],["urity",-12.240210269338636],["ĠWindows",-11.652423604436516],["ees",-12.751035893104628],["Ġmat",-12.240210269338636],["rapper",-12.05788871254468],["Ġplus",-12.05788871254468],["anges",-12.240210269338636],["\"].",-12.751035893104628],["azon",-12.463353820652848],["/t",-13.156501001212792],["lat",-12.751035893104628],["aste",-12.463353820652848],["Ġprofile",-11.652423604436516],["Ġready",-11.903738032717424],["#ifndef",-11.903738032717424],["rote",-12.463353820652848],["Ġsense",-11.903738032717424],["Gener",-12.240210269338636],["ĠConfig",-11.7702066400929],["omy",-12.751035893104628],["ĠJune",-12.05788871254468],["Ġlatest",-11.7702066400929],["Ġsaf",-12.240210269338636],["Ġregion",-11.7702066400929],["Ġdeep",-12.05788871254468],["witch",-12.240210269338636],["ĠPark",-12.05788871254468],["}`",-13.156501001212792],["ĠFrom",-12.05788871254468],["II",-13.156501001212792],["Ġcv",-12.463353820652848],["Ġreach",-11.903738032717424],["Ġcounter",-11.652423604436516],["ĠWork",-12.05788871254468],["ĠURL",-12.240210269338636],["ĠUpdate",-11.7702066400929],["',čĊ",-12.463353820652848],["Ġimmedi",-11.7702066400929],["close",-12.240210269338636],["ados",-12.463353820652848],["ferred",-12.05788871254468],["Ġweeks",-11.903738032717424],["urg",-12.751035893104628],["Ġdamage",-11.7702066400929],["Ġlost",-12.05788871254468],["ani",-12.751035893104628],["_lo",-12.751035893104628],["Ġhimself",-11.652423604436516],["Ġdog",-12.240210269338636],[")]Ċ",-12.751035893104628],["ï¿",-13.156501001212792],["pir",-12.751035893104628],["tt",-13.156501001212792],["Ġpaper",-11.903738032717424],["Ġthems",-11.903738032717424],["second",-12.05788871254468],["Ġstaff",-11.903738032717424],["ĠInput",-11.903738032717424],["\"+",-13.156501001212792],["ĠFacebook",-11.54706308877869],["Ġalloc",-11.903738032717424],["Ġsched",-11.903738032717424],["ACE",-12.751035893104628],["Ġthemselves",-11.364741531984736],["ĠComponent",-11.451752908974369],["Ġdriver",-11.7702066400929],["ja",-13.156501001212792],["(path",-12.240210269338636],["Ġcategory",-11.54706308877869],["alls",-12.463353820652848],["pu",-13.156501001212792],["lluminate",-11.652423604436516],["ĠAction",-11.7702066400929],[".button",-11.903738032717424],["ĠGL",-12.463353820652848],["istics",-12.05788871254468],["Ġoil",-12.240210269338636],["Ġstock",-11.903738032717424],[">'",-13.156501001212792],["Ġdead",-12.05788871254468],["VAL",-12.751035893104628],["QUE",-12.751035893104628],["************************************************************************",-9.57298206275668],["Ġcharg",-11.903738032717424],["Return",-12.05788871254468],["Ġful",-12.240210269338636],["dom",-12.751035893104628],["Ġrules",-11.903738032717424],["Ġmodify",-11.7702066400929],["Ġeval",-12.05788871254468],["ham",-12.751035893104628],["atement",-11.903738032717424],["\\<",-13.156501001212792],["ula",-12.751035893104628],["=False",-12.05788871254468],["RA",-13.156501001212792],["Ġcontains",-11.54706308877869],["Ġstack",-11.903738032717424],["mar",-12.751035893104628],["Ġ{}Ċ",-12.240210269338636],["Ġundefined",-11.451752908974369],["Ass",-12.751035893104628],["ĠChina",-11.903738032717424],["vey",-12.751035893104628],["*Ċ",-13.156501001212792],["Ġplaying",-11.652423604436516],[")/",-13.156501001212792],["actor",-12.240210269338636],["Ġbottom",-11.7702066400929],["lier",-12.463353820652848],["ĠNumber",-11.7702066400929],["Ġcouple",-11.7702066400929],["DC",-13.156501001212792],["ĠSO",-12.463353820652848],["gor",-12.751035893104628],[".setText",-11.7702066400929],["success",-11.903738032717424],["command",-11.903738032717424],["Filter",-12.05788871254468],["ĠOur",-12.240210269338636],["_item",-12.240210269338636],["Ġctx",-12.240210269338636],["Ġroad",-12.05788871254468],["Version",-11.903738032717424],["case",-12.463353820652848],["urt",-12.751035893104628],["avior",-12.240210269338636],["ych",-12.751035893104628],["sembly",-12.05788871254468],["ĠProduct",-11.652423604436516],["Ġheld",-12.05788871254468],["afe",-12.751035893104628],["Ġincludes",-11.54706308877869],["<quote",-12.05788871254468],["Ġavoid",-11.903738032717424],["ĠFin",-12.240210269338636],["ĠMod",-12.240210269338636],["Ġtab",-12.240210269338636],["ano",-12.751035893104628],["Ã±",-13.156501001212792],["ipping",-12.05788871254468],["-e",-13.156501001212792],["Ġinsert",-11.7702066400929],["target",-12.05788871254468],["chan",-12.463353820652848],[".Model",-12.05788871254468],["IME",-12.751035893104628],["\\Ċ",-13.156501001212792],["Ġmachine",-11.652423604436516],["avy",-12.751035893104628],["ĠNO",-12.463353820652848],["ĠInter",-11.903738032717424],["Ġoperation",-11.451752908974369],["modal",-12.240210269338636],["Tag",-12.751035893104628],["]:",-13.156501001212792],["Ġproduction",-11.364741531984736],["Ġareas",-11.903738032717424],["Ġren",-12.240210269338636],["_from",-12.240210269338636],["nbsp",-12.463353820652848],["Ġoperator",-11.54706308877869],["men",-12.751035893104628],["apped",-12.240210269338636],["_per",-12.463353820652848],["zen",-12.751035893104628],["(\".",-12.751035893104628],[".save",-12.240210269338636],["=\"{{",-12.463353820652848],["Ġtor",-12.240210269338636],["(response",-11.652423604436516],["Ġcandid",-11.7702066400929],["Ġconv",-12.05788871254468],["ailed",-12.240210269338636],["ĠLib",-12.240210269338636],["comp",-12.463353820652848],["ura",-12.751035893104628],["ï¿½",-12.751035893104628],["ĠHere",-12.05788871254468],["Ġargument",-11.54706308877869],["hood",-12.463353820652848],["Ġestablish",-11.451752908974369],["ography",-11.903738032717424],["ĠonClick",-11.652423604436516],["ambda",-12.240210269338636],["Ġsch",-12.240210269338636],["Ġmovie",-11.903738032717424],["Ġsec",-12.240210269338636],["Ġactivity",-11.54706308877869],["Ø§",-13.156501001212792],["Ġsql",-12.240210269338636],["_all",-12.463353820652848],["incip",-12.240210269338636],["Ġprovides",-11.54706308877869],["Ġsys",-12.240210269338636],["acket",-12.240210269338636],["Ġwasn",-12.05788871254468],["Ġuses",-12.05788871254468],["ĠFunction",-11.54706308877869],[".google",-11.903738032717424],["ĠResult",-11.7702066400929],["Visible",-11.903738032717424],["agma",-12.463353820652848],["elcome",-12.05788871254468],["ĠSy",-12.463353820652848],["ĠCent",-12.05788871254468],["ALSE",-12.463353820652848],["aciÃ³n",-12.05788871254468],["EXT",-12.751035893104628],["Ġlicense",-11.652423604436516],["ĠLong",-12.05788871254468],["Ġaccom",-11.903738032717424],["Ġability",-11.652423604436516],[".height",-11.903738032717424],["Active",-12.05788871254468],["ological",-11.7702066400929],["oly",-12.751035893104628],[")),",-12.751035893104628],[".Se",-12.751035893104628],["Ġparameter",-11.451752908974369],["prite",-12.240210269338636],["ABILITY",-11.903738032717424],[".service",-11.7702066400929],["ĠGroup",-11.903738032717424],["_query",-12.05788871254468],["ĠItem",-12.05788871254468],["ining",-12.240210269338636],["Ġjud",-12.240210269338636],["ims",-12.751035893104628],["fix",-12.751035893104628],["inder",-12.240210269338636],["agram",-12.240210269338636],["Ġfunctions",-11.451752908974369],["Ġexperi",-11.7702066400929],["ĠEm",-12.463353820652848],["Ġrot",-12.240210269338636],["Ġpen",-12.240210269338636],[".btn",-12.463353820652848],["ĠAS",-12.463353820652848],["#ifdef",-12.05788871254468],["Ġchoice",-11.7702066400929],["ĠPage",-12.05788871254468],["_PRO",-12.463353820652848],["QU",-13.156501001212792],["åı",-13.156501001212792],["antity",-12.05788871254468],["ÂŃ",-13.156501001212792],["words",-12.240210269338636],["Ġreadonly",-11.54706308877869],["Ġflex",-12.05788871254468],["protected",-11.652423604436516],["ĠAny",-12.240210269338636],["Ġcharacters",-11.364741531984736],["enced",-12.240210269338636],["ĠJuly",-12.05788871254468],["iler",-12.463353820652848],["Card",-12.463353820652848],["urance",-12.05788871254468],["Ġrev",-12.240210269338636],[".event",-12.05788871254468],["aly",-12.751035893104628],["Ġwonder",-11.7702066400929],["ĠPort",-12.05788871254468],["Ġlegal",-11.903738032717424],["role",-12.463353820652848],["Ġten",-12.240210269338636],["Ġgoes",-12.05788871254468],["MP",-13.156501001212792],["white",-12.240210269338636],["):čĊ",-12.463353820652848],["))čĊ",-12.463353820652848],["Ġreference",-11.451752908974369],["Ġmis",-12.240210269338636],["ĠProject",-11.652423604436516],["icks",-12.463353820652848],[">&",-13.156501001212792],["CON",-12.751035893104628],["Ġrepl",-12.05788871254468],["Ġregular",-11.652423604436516],["Storage",-11.903738032717424],["ramework",-11.7702066400929],["Ġgoal",-12.05788871254468],["Ġtouch",-11.903738032717424],[".widget",-11.903738032717424],["Ġbuilt",-11.903738032717424],["des",-12.751035893104628],["Part",-12.463353820652848],["(re",-12.751035893104628],["Ġworth",-11.903738032717424],["hib",-12.751035893104628],["game",-12.463353820652848],["ĠÐ²",-12.463353820652848],["acion",-12.240210269338636],["ĠWhite",-11.903738032717424],["(type",-12.240210269338636],["(`",-13.156501001212792],["Ġnatural",-11.652423604436516],["Ġinj",-12.240210269338636],["Ġcalcul",-11.7702066400929],["ĠApril",-11.903738032717424],[".List",-12.240210269338636],["Ġassociated",-11.364741531984736],["ĉSystem",-11.903738032717424],["~~",-13.156501001212792],["=[",-13.156501001212792],["Ġstorage",-11.652423604436516],["Ġbytes",-11.903738032717424],["Ġtravel",-11.7702066400929],["Ġsou",-12.240210269338636],["Ġpassed",-11.7702066400929],["!=",-13.156501001212792],["ascript",-11.903738032717424],[".open",-12.240210269338636],["Ġgrid",-12.05788871254468],["Ġbus",-12.240210269338636],["Ġrecogn",-11.7702066400929],["Ab",-13.156501001212792],["Ġhon",-12.240210269338636],["ĠCenter",-11.7702066400929],["Ġprec",-12.05788871254468],["build",-12.240210269338636],["HTML",-12.463353820652848],["ĠSan",-12.240210269338636],["Ġcountries",-11.451752908974369],["aled",-12.463353820652848],["token",-12.240210269338636],["kt",-13.156501001212792],["Ġqual",-12.05788871254468],["Last",-12.463353820652848],["adow",-12.463353820652848],["Ġmanufact",-11.54706308877869],["idad",-12.463353820652848],["jango",-12.240210269338636],["Next",-12.463353820652848],["xf",-13.156501001212792],[".a",-13.156501001212792],["Ġporno",-11.903738032717424],["ĠPM",-12.463353820652848],["erve",-12.463353820652848],["iting",-12.240210269338636],["_th",-12.751035893104628],["ci",-13.156501001212792],["=None",-12.240210269338636],["gs",-13.156501001212792],["Ġlogin",-11.903738032717424],["atives",-12.05788871254468],["']);Ċ",-12.240210269338636],["Äħ",-13.156501001212792],["Ġill",-12.240210269338636],["IA",-13.156501001212792],["children",-11.7702066400929],["DO",-13.156501001212792],["Ġlevels",-11.7702066400929],["Ġ{{",-12.463353820652848],["Ġlooks",-11.903738032717424],["Ġ\"#",-12.463353820652848],["ToString",-11.7702066400929],["Ġnecessary",-11.451752908974369],["ĠĠĠĊ",-11.903738032717424],["cell",-12.463353820652848],["Entry",-12.240210269338636],["Ġ'#",-12.463353820652848],["Ġextrem",-11.7702066400929],["Selector",-11.7702066400929],["Ġplaceholder",-11.2846988243112],["Load",-12.463353820652848],["Ġreleased",-11.54706308877869],["ORE",-12.751035893104628],["Enumer",-12.05788871254468],["ĠTV",-12.463353820652848],["SET",-12.751035893104628],["inq",-12.751035893104628],["Press",-12.240210269338636],["ĠDepartment",-11.364741531984736],["Ġproperties",-11.364741531984736],["Ġrespond",-11.652423604436516],["Search",-12.05788871254468],["ael",-12.751035893104628],["Ġrequ",-12.05788871254468],["ĠBook",-12.05788871254468],["/Ċ",-13.156501001212792],["(st",-12.751035893104628],["Ġfinancial",-11.451752908974369],["icket",-12.240210269338636],["_input",-12.05788871254468],["Ġthreat",-11.7702066400929],["(in",-12.751035893104628],["Strip",-12.240210269338636],["ìĿ",-13.156501001212792],["Ã§Ã£o",-12.240210269338636],["Ġevidence",-11.54706308877869],["));",-12.751035893104628],["ĠBro",-12.240210269338636],["Ġ[];Ċ",-12.05788871254468],["Ġou",-12.463353820652848],["buf",-12.751035893104628],["Script",-12.05788871254468],["dat",-12.751035893104628],["Ġrule",-12.05788871254468],["#import",-11.903738032717424],["=\"/",-12.751035893104628],["Serial",-12.05788871254468],["Ġstarting",-11.54706308877869],["[index",-12.05788871254468],["ae",-13.156501001212792],["Ġcontrib",-11.652423604436516],["session",-11.903738032717424],["_new",-12.463353820652848],["utable",-12.05788871254468],["ober",-12.463353820652848],["Ġ\"./",-12.240210269338636],["Ġlogger",-11.7702066400929],["Ġrecently",-11.54706308877869],["Ġreturned",-11.54706308877869],["ččĊ",-12.751035893104628],[")))Ċ",-12.463353820652848],["itions",-12.05788871254468],["Ġseek",-12.05788871254468],["Ġcommunic",-11.54706308877869],["Ġ\".",-12.463353820652848],["Ġusername",-11.54706308877869],["ECT",-12.751035893104628],["DS",-13.156501001212792],["Ġotherwise",-11.451752908974369],["ĠGerman",-11.7702066400929],[".aw",-12.751035893104628],["Adapter",-11.903738032717424],["ixel",-12.463353820652848],["Ġsystems",-11.652423604436516],["Ġdrop",-12.05788871254468],["Ġstructure",-11.451752908974369],["Ġ$(\"#",-12.05788871254468],["encies",-12.05788871254468],["anning",-12.05788871254468],["ĠLink",-12.05788871254468],["ĠResponse",-11.54706308877869],["Ġstri",-12.05788871254468],["Å¼",-13.156501001212792],["ĠDB",-12.463353820652848],["æĹ",-13.156501001212792],["android",-11.903738032717424],["submit",-12.05788871254468],["otion",-12.240210269338636],["(@",-13.156501001212792],[".test",-12.240210269338636],["ĊĊĊĊĊĊĊĊ",-11.7702066400929],["];čĊ",-12.463353820652848],["Ġdirectly",-11.54706308877869],["Ġ\"%",-12.463353820652848],["ris",-12.751035893104628],["elta",-12.463353820652848],["AIL",-12.751035893104628],["){čĊ",-12.463353820652848],["mine",-12.463353820652848],["ĠĠĠĠĠĠĠĠĠĠĠĠĠĠĠĠĠĠĠĠĠĠĠĠĠĠ",-9.898404463191309],["(k",-13.156501001212792],["bon",-12.751035893104628],["asic",-12.463353820652848],["pite",-12.463353820652848],["___",-12.751035893104628],["Max",-12.751035893104628],["Ġerrors",-11.7702066400929],["ĠWhile",-11.903738032717424],["Ġarguments",-11.451752908974369],["Ġensure",-11.7702066400929],["Right",-12.240210269338636],["-based",-12.05788871254468],["Web",-12.751035893104628],["Ġ-=",-12.463353820652848],["Ġintrodu",-11.652423604436516],["ĠInst",-12.05788871254468],["ĠWash",-12.05788871254468],["ordin",-12.240210269338636],["join",-12.463353820652848],["Database",-11.7702066400929],["Ġgrad",-12.05788871254468],["Ġusually",-11.652423604436516],["ITE",-12.751035893104628],["Props",-12.240210269338636],["?>Ċ",-12.751035893104628],["ĠGo",-12.463353820652848],["@Override",-11.652423604436516],["REF",-12.751035893104628],["Ġip",-12.463353820652848],["ĠAustral",-11.652423604436516],["Ġist",-12.240210269338636],["ViewById",-11.7702066400929],["Ġserious",-11.652423604436516],["Ġcustomer",-11.54706308877869],[".prototype",-11.54706308877869],["odo",-12.751035893104628],["cor",-12.751035893104628],["Ġdoor",-12.05788871254468],["ĠWITHOUT",-11.652423604436516],["Ġplant",-11.903738032717424],["Ġbegan",-11.903738032717424],["Ġdistance",-11.54706308877869],["()).",-12.463353820652848],["Ġchance",-11.7702066400929],["Ġord",-12.240210269338636],["came",-12.463353820652848],["pragma",-12.05788871254468],["Ġprotect",-11.652423604436516],["ragment",-11.903738032717424],["ĠNode",-12.05788871254468],["ening",-12.240210269338636],["Ñĩ",-13.156501001212792],["Ġroute",-11.903738032717424],["ĠSchool",-11.7702066400929],["hi",-13.156501001212792],["Ġneighb",-11.7702066400929],["After",-12.240210269338636],["licit",-12.240210269338636],["Ġcontr",-11.903738032717424],["Ġprimary",-11.652423604436516],["AA",-13.156501001212792],[".WriteLine",-11.54706308877869],["utils",-12.240210269338636],["Ġbi",-12.463353820652848],["Red",-12.751035893104628],[".Linq",-12.240210269338636],[".object",-11.903738032717424],["Ġleaders",-11.652423604436516],["unities",-11.903738032717424],["Ġgun",-12.240210269338636],["onth",-12.463353820652848],["ĠDev",-12.240210269338636],["FILE",-12.463353820652848],["Ġcomments",-11.54706308877869],["_len",-12.463353820652848],["arrow",-12.240210269338636],["amount",-12.05788871254468],["Range",-12.240210269338636],["sert",-12.463353820652848],["GridView",-11.7702066400929],["Ġupdated",-11.652423604436516],["ĠMo",-12.463353820652848],["Ġinform",-11.7702066400929],["ociety",-12.05788871254468],["ala",-12.751035893104628],["Access",-12.05788871254468],["Ġhab",-12.240210269338636],["Ġcreat",-11.903738032717424],["_arg",-12.463353820652848],["ĠJanuary",-11.652423604436516],["ĠDay",-12.240210269338636],["\")čĊ",-12.463353820652848],["uple",-12.463353820652848],["document",-11.7702066400929],["gorith",-12.05788871254468],["menu",-12.463353820652848],["ĠOver",-12.05788871254468],["bb",-13.156501001212792],[".title",-12.05788871254468],["_out",-12.463353820652848],["Ġled",-12.240210269338636],["uri",-12.751035893104628],["Ġ?></",-12.05788871254468],["gl",-13.156501001212792],["Ġbank",-12.05788871254468],["ayment",-12.05788871254468],["ĉprintf",-11.903738032717424],["MD",-13.156501001212792],["Ġsample",-11.7702066400929],["Ġhands",-11.903738032717424],["ĠVersion",-11.652423604436516],["uario",-12.240210269338636],["Ġoffers",-11.7702066400929],["ityEngine",-11.652423604436516],["Ġshape",-11.903738032717424],["Ġsleep",-11.903738032717424],["_point",-12.05788871254468],["Settings",-11.7702066400929],["Ġachie",-11.903738032717424],["Ġsold",-12.05788871254468],["ota",-12.751035893104628],[".bind",-12.240210269338636],["Am",-13.156501001212792],["Ġsafe",-12.05788871254468],["Store",-12.240210269338636],["Ġshared",-11.7702066400929],["Ġpriv",-12.05788871254468],["_VAL",-12.463353820652848],["Ġsens",-12.05788871254468],["){",-13.156501001212792],["Ġremember",-11.54706308877869],["shared",-12.05788871254468],["element",-11.903738032717424],["Ġshoot",-11.903738032717424],["Vert",-12.463353820652848],["cout",-12.463353820652848],["Ġenv",-12.240210269338636],["_label",-12.05788871254468],["Ġ>Ċ",-12.463353820652848],["run",-12.751035893104628],["Ġscene",-11.903738032717424],["(array",-12.05788871254468],["device",-12.05788871254468],["_title",-12.05788871254468],["agon",-12.463353820652848],["]čĊ",-12.751035893104628],["aby",-12.751035893104628],["Ġbecame",-11.7702066400929],["boolean",-11.903738032717424],["Ġpark",-12.05788871254468],["ĠCode",-12.05788871254468],["upload",-12.05788871254468],["riday",-12.240210269338636],["ĠSeptember",-11.451752908974369],["Fe",-13.156501001212792],["Ġsen",-12.240210269338636],["cing",-12.463353820652848],["FL",-13.156501001212792],["Col",-12.751035893104628],["uts",-12.751035893104628],["_page",-12.240210269338636],["inn",-12.751035893104628],["Ġimplied",-11.652423604436516],["aling",-12.240210269338636],["Ġyourself",-11.54706308877869],[".Count",-12.05788871254468],["conf",-12.463353820652848],["Ġaud",-12.240210269338636],["_init",-12.240210269338636],[".)",-13.156501001212792],["Ġwrote",-11.903738032717424],["NG",-13.156501001212792],[".Error",-12.05788871254468],["ä»",-13.156501001212792],[".for",-12.463353820652848],["Ġequal",-11.903738032717424],["ĠRequest",-11.652423604436516],["Ġserial",-11.7702066400929],["Ġallows",-11.7702066400929],["XX",-13.156501001212792],["Ġmiddle",-11.7702066400929],["chor",-12.463353820652848],["Ã¸",-13.156501001212792],["erval",-12.240210269338636],[".Column",-11.903738032717424],["reading",-11.903738032717424],["Ġescort",-11.7702066400929],["ĠAugust",-11.7702066400929],["Ġquickly",-11.652423604436516],["Ġweap",-12.05788871254468],["ĠCG",-12.463353820652848],["ropri",-12.240210269338636],["ho",-13.156501001212792],["Ġcop",-12.240210269338636],["(struct",-11.903738032717424],["ĠBig",-12.240210269338636],["Ġvs",-12.463353820652848],["Ġfrequ",-11.903738032717424],[".Value",-12.05788871254468],["Ġactions",-11.652423604436516],["Ġproper",-11.7702066400929],["Ġinn",-12.240210269338636],["Ġobjects",-11.652423604436516],["Ġmatrix",-11.7702066400929],["avascript",-11.652423604436516],["Ġones",-12.05788871254468],[".group",-12.05788871254468],["Ġgreen",-11.903738032717424],["Ġpaint",-11.903738032717424],["ools",-12.463353820652848],["ycl",-12.751035893104628],["encode",-12.05788871254468],["olt",-12.751035893104628],["comment",-11.903738032717424],[".api",-12.463353820652848],["Dir",-12.751035893104628],["Ġune",-12.240210269338636],["izont",-12.240210269338636],[".position",-11.652423604436516],["Ġdesigned",-11.54706308877869],["_val",-12.463353820652848],["avi",-12.751035893104628],["iring",-12.240210269338636],["tab",-12.751035893104628],["Ġlayer",-11.903738032717424],["Ġviews",-11.903738032717424],["Ġreve",-12.05788871254468],["rael",-12.463353820652848],["ĠON",-12.463353820652848],["rics",-12.463353820652848],["np",-13.156501001212792],["Ġcore",-12.05788871254468],["());čĊ",-12.05788871254468],["Main",-12.463353820652848],["Ġexpert",-11.7702066400929],["ĉĉčĊ",-12.463353820652848],["_en",-12.751035893104628],["Ġ/>",-12.463353820652848],["utter",-12.240210269338636],["IAL",-12.751035893104628],["ails",-12.463353820652848],["ĠKing",-12.05788871254468],["*/ĊĊ",-12.463353820652848],["ĠMet",-12.240210269338636],["_end",-12.463353820652848],["addr",-12.463353820652848],["ora",-12.751035893104628],["Ġir",-12.463353820652848],["Min",-12.751035893104628],["Ġsurpr",-11.903738032717424],["Ġrepe",-12.05788871254468],["Ġdirectory",-11.451752908974369],["PUT",-12.751035893104628],["-S",-13.156501001212792],["Ġelection",-11.54706308877869],["haps",-12.463353820652848],[".pre",-12.463353820652848],["cm",-13.156501001212792],["Values",-12.05788871254468],["Ġ\"Ċ",-12.463353820652848],["column",-12.05788871254468],["ivil",-12.463353820652848],["Login",-12.240210269338636],["inue",-12.463353820652848],["Ġbeautiful",-11.451752908974369],["Ġsecret",-11.7702066400929],["(event",-12.05788871254468],["Ġchat",-12.05788871254468],["ums",-12.751035893104628],["Ġorigin",-11.7702066400929],["Ġeffects",-11.652423604436516],["Ġmanagement",-11.364741531984736],["illa",-12.463353820652848],["tk",-13.156501001212792],["Ġsetting",-11.652423604436516],["ĠCour",-12.05788871254468],["Ġmassage",-11.652423604436516],["ĉend",-12.463353820652848],["Ġhappy",-11.903738032717424],["Ġfinish",-11.7702066400929],["Ġcamera",-11.7702066400929],["ĠVer",-12.240210269338636],["ĠDemocr",-11.7702066400929],["ĠHer",-12.240210269338636],["(Q",-13.156501001212792],["cons",-12.463353820652848],["ita",-12.751035893104628],["Ġ'.",-12.463353820652848],["{}",-13.156501001212792],["ĉC",-13.156501001212792],["Ġstuff",-11.903738032717424],["Ġ:Ċ",-12.463353820652848],["ĠAR",-12.463353820652848],["Task",-12.463353820652848],["hidden",-12.05788871254468],["eros",-12.463353820652848],["IGN",-12.751035893104628],["atio",-12.463353820652848],["ĠHealth",-11.7702066400929],["olute",-12.240210269338636],["Enter",-12.240210269338636],["'>",-13.156501001212792],["ĠTwitter",-11.652423604436516],["ĠCounty",-11.7702066400929],["scribe",-12.05788871254468],["Ġ=>Ċ",-12.240210269338636],["Ġhy",-12.463353820652848],["fit",-12.751035893104628],["Ġmilitary",-11.54706308877869],["Ġsale",-12.05788871254468],["required",-11.7702066400929],["non",-12.751035893104628],["bootstrap",-11.652423604436516],["hold",-12.463353820652848],["rim",-12.751035893104628],["-old",-12.463353820652848],["ĠDown",-12.05788871254468],["Ġmention",-11.652423604436516],["contact",-11.903738032717424],["_group",-12.05788871254468],["oday",-12.463353820652848],["Ġtown",-12.05788871254468],["Ġsolution",-11.54706308877869],["uate",-12.463353820652848],["elling",-12.05788871254468],["]->",-12.751035893104628],["otes",-12.463353820652848],["ental",-12.240210269338636],["omen",-12.463353820652848],["ospital",-11.903738032717424],["ĠSup",-12.240210269338636],["_EN",-12.751035893104628],["Ġslow",-12.05788871254468],["SESSION",-11.903738032717424],["Ġblue",-12.05788871254468],["ago",-12.751035893104628],["Ġlives",-11.903738032717424],["Ġ^",-12.751035893104628],[".un",-12.751035893104628],["inst",-12.463353820652848],["enge",-12.463353820652848],["Ġcustomers",-11.451752908974369],["Ġcast",-12.05788871254468],["udget",-12.240210269338636],["ï¼ģ",-12.751035893104628],["icens",-12.240210269338636],["Ġdetermin",-11.54706308877869],["Selected",-11.7702066400929],["_pl",-12.751035893104628],["ueue",-12.463353820652848],["Ġdark",-12.05788871254468],["//ĊĊ",-12.463353820652848],["si",-13.156501001212792],["thern",-12.240210269338636],["ĠJapan",-11.903738032717424],["/w",-13.156501001212792],["PU",-13.156501001212792],["ĠEast",-12.05788871254468],["ovie",-12.463353820652848],["Ġpackage",-11.652423604436516],["Ġnor",-12.240210269338636],["Ġapi",-12.240210269338636],["bot",-12.751035893104628],["\"];Ċ",-12.463353820652848],["_post",-12.240210269338636],["ulate",-12.240210269338636],["Ġclub",-12.05788871254468],["'));Ċ",-12.240210269338636],["Ġloop",-12.05788871254468],["PIO",-12.751035893104628],["ione",-12.463353820652848],["shot",-12.463353820652848],["Initial",-11.903738032717424],["Ġplayed",-11.7702066400929],["register",-11.7702066400929],["rought",-12.05788871254468],["_max",-12.463353820652848],["acement",-11.903738032717424],["match",-12.240210269338636],["raphics",-11.903738032717424],["AST",-12.751035893104628],["Ġexisting",-11.54706308877869],["Ġcomplex",-11.652423604436516],["DA",-13.156501001212792],[".Ch",-12.751035893104628],[".common",-11.903738032717424],["mo",-13.156501001212792],["Ġ'../../",-11.652423604436516],["ito",-12.751035893104628],["Ġanalysis",-11.54706308877869],["Ġdeliver",-11.652423604436516],["ĠĠĠĠĠĠĠĠĠĠĠĠĠĠĠĠĊ",-10.353140620306256],["idx",-12.751035893104628],["Ãł",-13.156501001212792],["ongo",-12.463353820652848],["ĠEnglish",-11.652423604436516],["<!--",-12.463353820652848],["Ġcomputer",-11.54706308877869],["ENSE",-12.463353820652848],["Ġpas",-12.240210269338636],["Ġrais",-12.05788871254468],["Hash",-12.463353820652848],["Ġmobile",-11.7702066400929],["Ġowner",-11.903738032717424],["FIG",-12.751035893104628],["ĠĠĠĠĠĠĠĠĠĠĠĠĠĠĠĠĠĠĠĠĠĠĠĠĠĠĠĠĠĠĠĠĠĠĠĠĠĠĠĠĠĠĠĠĠĠĠĠĠĠĠ",-9.224675368488466],["thes",-12.463353820652848],["Ġattr",-12.05788871254468],["wd",-13.156501001212792],[".time",-12.240210269338636],["awn",-12.751035893104628],["Ġtreatment",-11.451752908974369],["ĠAc",-12.463353820652848],[".View",-12.240210269338636],["impl",-12.463353820652848],["more",-12.463353820652848],["pass",-12.463353820652848],["Ġha",-12.463353820652848],[".from",-12.240210269338636],["Ġleading",-11.652423604436516],["FFFF",-12.463353820652848],["(error",-12.05788871254468],[".ui",-12.751035893104628],["atar",-12.463353820652848],["aders",-12.240210269338636],["dates",-12.240210269338636],["Ġzu",-12.463353820652848],["Ġflow",-12.05788871254468],["Target",-12.05788871254468],["Ġinvolved",-11.54706308877869],["Ġio",-12.463353820652848],["parse",-12.240210269338636],["$_",-13.156501001212792],["hest",-12.463353820652848],[".int",-12.463353820652848],["-item",-12.240210269338636],["asy",-12.751035893104628],["Sp",-13.156501001212792],["Ġshift",-11.903738032717424],["NT",-13.156501001212792],["Ġtf",-12.463353820652848],["_TR",-12.751035893104628],[".web",-12.463353820652848],["CS",-13.156501001212792],["Ġ})",-12.463353820652848],["Ġeyes",-12.05788871254468],["_z",-13.156501001212792],["');čĊ",-12.240210269338636],["iforn",-12.240210269338636],["Ġ{@",-12.463353820652848],["Ġnice",-12.05788871254468],[".list",-12.240210269338636],["ĠĠĠĠčĊ",-11.54706308877869],["Ġfloor",-11.903738032717424],["Ġredirect",-11.54706308877869],["ĠUK",-12.463353820652848],["(['",-12.751035893104628],["Ġwish",-12.05788871254468],["Ġcapt",-12.05788871254468],["legal",-12.240210269338636],["ĠIO",-12.463353820652848],["Ġstage",-11.903738032717424],[".String",-11.903738032717424],["ĠAfr",-12.240210269338636],["igen",-12.463353820652848],["ĠSH",-12.463353820652848],["Delete",-12.05788871254468],["ells",-12.463353820652848],["Ġsolid",-11.903738032717424],["Ġmeeting",-11.652423604436516],["Ġworked",-11.7702066400929],["Ġeditor",-11.7702066400929],["iny",-12.751035893104628],["Ð¼",-13.156501001212792],["_read",-12.240210269338636],[".Id",-12.751035893104628],["eff",-12.751035893104628],["Offset",-12.05788871254468],["cha",-12.751035893104628],["USER",-12.463353820652848],["ĉĉĠĠĠ",-11.7702066400929],["ipped",-12.240210269338636],["Ġdict",-12.05788871254468],["ĠRun",-12.240210269338636],[".hpp",-12.463353820652848],["Ġang",-12.240210269338636],["xml",-12.751035893104628],["imple",-12.240210269338636],["Ġmedical",-11.652423604436516],["_token",-12.05788871254468],["connect",-11.903738032717424],["Ġhour",-12.05788871254468],["Ġcontroller",-11.364741531984736],["_message",-11.7702066400929],["UID",-12.751035893104628],["Gr",-13.156501001212792],["anded",-12.240210269338636],["_CH",-12.751035893104628],["Ġbooks",-11.903738032717424],["Ġspeak",-11.903738032717424],["aming",-12.240210269338636],["Ġmount",-11.903738032717424],["Record",-12.05788871254468],["ĉstruct",-11.903738032717424],[".Web",-12.463353820652848],["ondon",-12.240210269338636],["Ġ//Ċ",-12.240210269338636],["Ġfelt",-12.05788871254468],[".Auto",-12.240210269338636],["idge",-12.463353820652848],["_pos",-12.463353820652848],["PR",-13.156501001212792],["Ġmodern",-11.7702066400929],["Collection",-11.54706308877869],["_msg",-12.463353820652848],["CD",-13.156501001212792],["ĠLo",-12.463353820652848],["Ġseconds",-11.652423604436516],["ibly",-12.463353820652848],[".equals",-11.903738032717424],["Ġinternational",-11.141597980670529],["#pragma",-11.903738032717424],["ooth",-12.463353820652848],["Writer",-12.05788871254468],["iate",-12.463353820652848],["Ġcele",-12.05788871254468],["ĠBit",-12.240210269338636],["ivo",-12.751035893104628],["ivery",-12.240210269338636],["rd",-13.156501001212792],["HECK",-12.463353820652848],["Ġcache",-11.903738032717424],[".count",-12.05788871254468],["Ġroll",-12.05788871254468],[".Read",-12.240210269338636],["RED",-12.751035893104628],["Ġsetup",-11.903738032717424],["izontal",-11.903738032717424],["models",-12.05788871254468],["argv",-12.463353820652848],["Ġconsidered",-11.364741531984736],["=\"../",-12.240210269338636],["settings",-11.7702066400929],["ĠRel",-12.240210269338636],["Ġgrowth",-11.7702066400929],["Ġmix",-12.240210269338636],["ĠWashington",-11.364741531984736],["Ġplt",-12.240210269338636],["ĠIM",-12.463353820652848],["áº",-13.156501001212792],["Ġturned",-11.7702066400929],["ĠDateTime",-11.54706308877869],["ĠWed",-12.240210269338636],["(url",-12.463353820652848],["Ġ\"-",-12.463353820652848],["Ġletter",-11.7702066400929],["Async",-12.240210269338636],["ĠĠĠĠĠĠĠĠĠĠĠĠĠĠĠĠĠĠĠĠĠĠĠĠĠĠĠĠ",-9.824296491037588],["ĠOctober",-11.652423604436516],["_line",-12.240210269338636],["Ġattention",-11.451752908974369],["Ġcollect",-11.652423604436516],["ĠHash",-12.05788871254468],["Ġimag",-12.05788871254468],["Tree",-12.463353820652848],["Ġsituation",-11.451752908974369],["ette",-12.463353820652848],["_no",-12.751035893104628],["IVE",-12.751035893104628],["Ġvon",-12.240210269338636],[".target",-11.903738032717424],["Ġknowledge",-11.451752908974369],["Ġdrive",-11.903738032717424],[".post",-12.240210269338636],["Ġblood",-11.903738032717424],["Ġcit",-12.240210269338636],["primary",-11.903738032717424],["Ġconfiguration",-11.141597980670529],["tee",-12.751035893104628],["Ġphoto",-11.903738032717424],["isode",-12.240210269338636],["Trace",-12.240210269338636],["Ġgave",-12.05788871254468],["Ġshot",-12.05788871254468],["ĠAir",-12.240210269338636],["Ġmother",-11.7702066400929],["price",-12.240210269338636],["Ġmorning",-11.652423604436516],[")){Ċ",-12.463353820652848],["-x",-13.156501001212792],["Ġtrade",-11.903738032717424],["Ġdesc",-12.05788871254468],["Ġ&&Ċ",-12.240210269338636],["Ġparents",-11.652423604436516],["Api",-12.751035893104628],["åĪ",-13.156501001212792],["ted",-12.751035893104628],["wer",-12.751035893104628],["Ġæ",-12.751035893104628],["Ġsy",-12.463353820652848],["ĠKe",-12.463353820652848],["Parser",-12.05788871254468],["åħ",-13.156501001212792],["ancy",-12.463353820652848],["Ġpiece",-11.903738032717424],["ifornia",-11.903738032717424],["toString",-11.7702066400929],["ran",-12.751035893104628],["iding",-12.240210269338636],["PTION",-12.240210269338636],["comes",-12.240210269338636],["/lic",-12.463353820652848],[".client",-11.903738032717424],["El",-13.156501001212792],["Long",-12.463353820652848],["Ġprofessional",-11.21059085215748],["rupt",-12.463353820652848],["va",-13.156501001212792],["Ġcompletely",-11.364741531984736],["Ġpractice",-11.54706308877869],["Ġselection",-11.451752908974369],["Rem",-12.751035893104628],["ini",-12.751035893104628],["Ġcam",-12.240210269338636],["REE",-12.751035893104628],["Ġsites",-11.903738032717424],["pa",-13.156501001212792],["ATUS",-12.463353820652848],["ÑģÑĤ",-12.463353820652848],["arrant",-12.05788871254468],["*(",-13.156501001212792],["_KEY",-12.463353820652848],["ĠButton",-11.7702066400929],["ĠFriday",-11.7702066400929],["sequ",-12.463353820652848],["Ġreader",-11.7702066400929],["Ġmessages",-11.54706308877869],["è¯",-13.156501001212792],["Ġbuf",-12.240210269338636],["Ke",-13.156501001212792],["Ġnov",-12.240210269338636],["HP",-13.156501001212792],["Msg",-12.751035893104628],["align",-12.240210269338636],["arily",-12.240210269338636],["Ġ',",-12.463353820652848],["_with",-12.240210269338636],["Ġdas",-12.240210269338636],["Ġheard",-11.903738032717424],["atomic",-12.05788871254468],["rial",-12.463353820652848],[")[",-13.156501001212792],["Ġdise",-12.05788871254468],["@end",-12.463353820652848],["Ġgold",-12.05788871254468],["Ġfair",-12.05788871254468],["Ġsales",-11.903738032717424],[".Button",-11.903738032717424],["strict",-12.05788871254468],["save",-12.463353820652848],["Ġmeasure",-11.652423604436516],["Ġ\"+",-12.463353820652848],["ecause",-12.05788871254468],["ViewController",-11.21059085215748],["ĠTable",-11.903738032717424],[".param",-12.05788871254468],["Ġdecided",-11.652423604436516],["(((",-12.751035893104628],["INFO",-12.463353820652848],["Ġopportunity",-11.2846988243112],["Te",-13.156501001212792],["ICENSE",-12.05788871254468],["ccording",-11.7702066400929],["ki",-13.156501001212792],["ĠUN",-12.463353820652848],["Ġcontain",-11.652423604436516],["Ġmanager",-11.652423604436516],["Ġpain",-12.05788871254468],["ĠFire",-12.05788871254468],["rome",-12.463353820652848],["Ġplans",-11.903738032717424],["Found",-12.240210269338636],["lay",-12.751035893104628],["ĠDecember",-11.54706308877869],["Ġinflu",-11.903738032717424],["Ãº",-13.156501001212792],["rench",-12.240210269338636],["ĠĠĠĠĠĠĠĠĠĠĠĠĠĠĠĠĠĠĠĠĠĠĠĠĠĠĠĠĠĠĠĠĠ",-9.65999343974631],["azing",-12.240210269338636],["brief",-12.240210269338636],["call",-12.463353820652848],["wood",-12.463353820652848],["Ġloaded",-11.7702066400929],["Ġgrand",-11.903738032717424],["/f",-13.156501001212792],["imp",-12.751035893104628],["_U",-13.156501001212792],["STR",-12.751035893104628],["âĢ¢",-12.751035893104628],["Ġcredit",-11.7702066400929],[".Color",-12.05788871254468],["orge",-12.463353820652848],["QUEST",-12.240210269338636],["Ġdifference",-11.364741531984736],["ĠPC",-12.463353820652848],["wargs",-12.240210269338636],["Ġpub",-12.240210269338636],["unday",-12.240210269338636],["Ġfra",-12.240210269338636],[".max",-12.463353820652848],["Ġtried",-11.903738032717424],["annels",-12.05788871254468],["send",-12.463353820652848],["Ġreports",-11.652423604436516],["Ġadult",-11.903738032717424],["äº",-13.156501001212792],["Ġconsist",-11.652423604436516],["ĠStreet",-11.7702066400929],["ĠProgram",-11.652423604436516],["SQL",-12.751035893104628],["Matrix",-12.05788871254468],["ouncil",-12.05788871254468],["-A",-13.156501001212792],["ĉw",-13.156501001212792],["Ġwhose",-11.903738032717424],["Ġrelig",-11.903738032717424],["ĠSex",-12.240210269338636],["Ġgives",-11.903738032717424],["none",-12.463353820652848],[".message",-11.7702066400929],["(G",-13.156501001212792],[".awt",-12.463353820652848],["-right",-12.05788871254468],["ĠNovember",-11.54706308877869],["ellig",-12.240210269338636],["utive",-12.240210269338636],["Äĥ",-13.156501001212792],["overn",-12.240210269338636],["Ġeasily",-11.7702066400929],["Ġideas",-11.903738032717424],["ĠÐ½",-12.463353820652848],["/css",-12.463353820652848],["lying",-12.240210269338636],["elle",-12.463353820652848],["Can",-12.751035893104628],["_color",-12.05788871254468],["Ð¾Ð²",-12.463353820652848],["Ġpair",-12.05788871254468],["ngth",-12.463353820652848],["Ġsplit",-11.903738032717424],["drop",-12.463353820652848],["arty",-12.463353820652848],["ona",-12.751035893104628],["Ġcapital",-11.652423604436516],["Ġhear",-12.05788871254468],["Ġexists",-11.7702066400929],["ĉlog",-12.463353820652848],["emo",-12.751035893104628],["Run",-12.751035893104628],["oi",-13.156501001212792],["Ġparser",-11.7702066400929],["ĠMethod",
[...]
